▁xxunk	0
▁xxpad	0
▁xxbos	0
▁xxeos	0
▁xxfld	0
▁xxmaj	0
▁xxup	0
▁xxrep	0
▁xxwrep	0
<unk>	0
▁	-1.8806
.	-3.27038
,	-3.62022
'	-3.9953
▁ve	-4.09505
▁bir	-4.60025
"	-4.91367
▁bu	-5.18416
̇	-5.21219
▁i	-5.26634
da	-5.32025
a	-5.3744
de	-5.3823
i	-5.41051
▁"	-5.42571
▁olarak	-5.50126
▁ile	-5.50588
e	-5.55179
▁(	-5.61455
)	-5.66827
-	-5.67173
in	-5.67563
’	-5.71403
n	-5.76727
▁için	-5.77626
nin	-5.78881
nın	-5.89595
▁olan	-5.93742
lar	-6.00675
▁da	-6.0594
ler	-6.08
ya	-6.09007
ın	-6.1255
ne	-6.13814
▁sonra	-6.17602
na	-6.18531
▁de	-6.20636
s	-6.21365
▁yılında	-6.24828
te	-6.26687
▁daha	-6.30737
▁tarafından	-6.30823
▁/	-6.38306
▁en	-6.40879
:	-6.42876
k	-6.42892
▁ilk	-6.43011
▁ise	-6.54119
dan	-6.54357
▁çok	-6.5684
den	-6.57642
un	-6.59907
="	-6.603
ye	-6.6183
ları	-6.64001
ni	-6.64166
▁gibi	-6.65445
dir	-6.65737
la	-6.65749
>	-6.66024
li	-6.67749
ta	-6.68731
leri	-6.69351
;	-6.69664
nde	-6.70371
le	-6.713
ı	-6.7132
▁büyük	-6.71756
u	-6.75974
t	-6.78677
d	-6.79434
m	-6.79873
nda	-6.80749
▁<	-6.82083
▁kadar	-6.84635
▁yer	-6.86016
center	-6.89156
dır	-6.89486
▁iki	-6.895
▁!	-6.89686
si	-6.89953
▁align	-6.90635
▁doc	-6.90948
▁arasında	-6.93919
r	-6.95235
▁|	-6.98154
lı	-7.01379
ki	-7.01634
l	-7.02199
▁oldu	-7.02599
▁olduğu	-7.0318
▁ancak	-7.03914
▁her	-7.06656
o	-7.07421
▁göre	-7.11132
nı	-7.11169
▁yeni	-7.11193
yi	-7.12396
▁aynı	-7.12876
ların	-7.1547
▁diğer	-7.18659
z	-7.19925
lerin	-7.20003
▁veya	-7.2089
▁birlikte	-7.21398
nun	-7.22243
▁türkiye	-7.24112
),	-7.24666
pan	-7.24994
p	-7.25959
▁o	-7.27703
di	-7.28199
daki	-7.30018
▁tarihinde	-7.33706
▁vardır	-7.35358
▁ayrıca	-7.35383
▁son	-7.36223
▁karşı	-7.36531
▁yıl	-7.37986
en	-7.3894
yı	-7.39127
nden	-7.39281
er	-7.39872
sa	-7.41668
▁cols	-7.42565
ndan	-7.43746
yla	-7.44046
▁adlı	-7.45133
▁önemli	-7.45666
y	-7.4595
lik	-7.46861
yle	-7.47653
▁1	-7.5021
se	-7.50824
▁bulunan	-7.50848
▁etti	-7.51037
▁dünya	-7.51511
sı	-7.51605
c	-7.51942
▁türk	-7.52767
stanbul	-7.54438
an	-7.56751
▁önce	-7.5678
▁içinde	-7.57182
ca	-7.58539
▁üzerine	-7.59526
▁eski	-7.60458
▁2	-7.60516
▁alan	-7.60769
▁bazı	-7.61022
▁3	-7.61728
▁birçok	-7.61991
▁yapılan	-7.62001
▁aldı	-7.6262
ma	-7.62623
▁ya	-7.64189
larını	-7.64603
▁olduğunu	-7.65406
ten	-7.65809
ti	-7.65992
▁zaman	-7.66051
▁kendi	-7.66736
▁şekilde	-7.67773
deki	-7.67849
▁tüm	-7.69087
▁yüksek	-7.69486
▁başladı	-7.70156
▁adı	-7.71084
lu	-7.71475
▁üç	-7.7156
tan	-7.72937
▁devam	-7.73452
▁tek	-7.73746
lara	-7.74115
f	-7.74408
▁üzere	-7.74437
▁kez	-7.75022
b	-7.75464
▁the	-7.76031
▁kabul	-7.76228
▁olmuştur	-7.76361
▁gelen	-7.76427
▁“	-7.77344
lere	-7.78683
▁avrupa	-7.79242
▁genel	-7.79895
h	-7.79939
me	-7.79998
lerini	-7.80161
▁fakat	-7.80658
ken	-7.80725
”	-7.80835
▁hem	-7.80871
▁ikinci	-7.81803
▁iyi	-7.82702
▁farklı	-7.83087
▁ardından	-7.8384
g	-7.84243
▁küçük	-7.85433
▁4	-7.85483
▁sahip	-7.85852
▁üzerinde	-7.86117
▁osmanlı	-7.86382
man	-7.87055
▁bağlı	-7.87296
▁fazla	-7.88001
lık	-7.88114
▁geri	-7.89386
▁eden	-7.91025
▁ama	-7.91231
▁yaptı	-7.91788
▁5	-7.92907
ce	-7.93155
▁olup	-7.93309
▁sadece	-7.94071
▁ortaya	-7.94484
▁su	-7.95091
▁10	-7.95341
▁üniversitesi	-7.96118
larının	-7.96834
lk	-7.96991
▁çeşitli	-7.97483
▁savaşı	-7.98489
al	-7.98533
▁süre	-7.98777
▁15	-7.99473
▁olmak	-7.9999
larda	-8.00156
lerde	-8.00231
▁bulunmaktadır	-8.00464
▁sırasında	-8.00471
▁bunun	-8.01081
▁devlet	-8.01319
▁film	-8.02041
▁mayıs	-8.02277
lerinin	-8.03019
▁abd	-8.0372
tir	-8.03873
4"	-8.0424
▁biri	-8.05073
▁uzun	-8.05352
▁gün	-8.05423
ş	-8.06301
▁mart	-8.06855
▁doğru	-8.07171
▁özel	-8.07174
x	-8.07498
▁km	-8.07685
",	-8.07783
ci	-8.08061
▁başka	-8.08513
▁müzik	-8.0854
▁16	-8.08723
▁kısa	-8.08912
▁onun	-8.09018
ün	-8.09441
▁ana	-8.09478
▁boyunca	-8.11352
▁az	-8.11692
▁tekrar	-8.11736
▁zamanda	-8.12012
▁yerine	-8.12214
ç	-8.12247
▁eder	-8.12501
▁6	-8.12643
▁yeniden	-8.13033
dur	-8.13051
▁ekim	-8.13221
ka	-8.13302
▁17	-8.13359
▁rağmen	-8.13522
▁savaş	-8.13929
▁oy	-8.14395
▁toplam	-8.14451
▁eylül	-8.15109
▁of	-8.15342
larına	-8.15502
▁özellikle	-8.15605
▁ocak	-8.16015
▁12	-8.16847
ran	-8.1744
▁grup	-8.17688
▁şarkı	-8.17895
lardan	-8.18499
▁temmuz	-8.18579
▁yol	-8.18587
▁nedeniyle	-8.18789
▁haziran	-8.18859
lerden	-8.19042
▁yaptığı	-8.19063
on	-8.19228
▁burada	-8.19438
▁eğitim	-8.20503
▁kasım	-8.20627
▁yine	-8.21417
▁yakın	-8.2157
dı	-8.21687
▁paşa	-8.21722
lerine	-8.22356
v	-8.22477
▁altında	-8.22533
▁ağustos	-8.23201
▁sonunda	-8.23385
▁görev	-8.23479
▁elde	-8.2376
▁parti	-8.23887
tır	-8.24182
▁aralık	-8.24604
▁nisan	-8.24773
bu	-8.24872
the	-8.25069
▁el	-8.25169
▁ilgili	-8.25321
▁olması	-8.2581
▁8	-8.26321
")	-8.26615
(	-8.26821
nu	-8.27268
lerinden	-8.2763
▁ii	-8.28506
▁7	-8.28534
el	-8.28661
tı	-8.28731
▁edildi	-8.28945
▁kara	-8.29288
▁edilen	-8.29296
sel	-8.2931
2	-8.29547
▁dört	-8.29619
▁orta	-8.29648
ge	-8.29692
▁onu	-8.2995
▁ele	-8.29968
ra	-8.30122
▁kuzey	-8.30186
▁doğu	-8.30274
▁ay	-8.31713
larından	-8.31713
▁takım	-8.32142
▁bütün	-8.32501
▁şubat	-8.32517
▁yaklaşık	-8.32569
▁sayısı	-8.32628
▁sıra	-8.32765
▁olur	-8.32796
▁merkezi	-8.33037
▁14	-8.33305
▁tam	-8.33409
▁oranı	-8.33477
ini	-8.33567
larında	-8.33616
▁kişi	-8.34304
to	-8.34439
ü	-8.34488
▁lig	-8.35288
su	-8.35305
▁batı	-8.36006
ri	-8.36956
▁bin	-8.37197
▁birkaç	-8.37405
▁sezon	-8.37725
▁sırada	-8.38292
us	-8.38598
yu	-8.38671
es	-8.388
ro	-8.38878
▁amerika	-8.3892
▁almanya	-8.38923
▁genellikle	-8.39302
lerle	-8.39311
▁köy	-8.39532
▁şu	-8.39663
▁11	-8.39898
ar	-8.4001
▁halk	-8.40051
▁roma	-8.40149
▁13	-8.40226
▁uluslararası	-8.40352
▁çıkan	-8.40371
▁birliği	-8.40423
▁ait	-8.405
▁karar	-8.40844
▁hava	-8.40987
▁güney	-8.41137
▁dolayı	-8.41212
▁tarihi	-8.4124
larla	-8.41327
▁açık	-8.41332
▁20	-8.42184
▁("	-8.42656
▁çıktı	-8.42712
▁gelir	-8.42737
▁hakkında	-8.42778
▁fransa	-8.43064
▁sezonunda	-8.43459
▁aday	-8.43501
▁on	-8.43907
▁alman	-8.43957
▁yılları	-8.45362
▁var	-8.45429
▁kullanılan	-8.45433
▁ankara	-8.45452
▁bey	-8.45509
▁formula	-8.46166
▁almıştır	-8.46184
ir	-8.46299
▁yarı	-8.46432
▁anadolu	-8.46527
▁yoktur	-8.46546
▁oluşan	-8.46885
son	-8.4711
▁şehir	-8.47359
▁pek	-8.47375
re	-8.47534
▁gol	-8.47591
▁hemen	-8.47662
ga	-8.47842
ktan	-8.47911
lerinde	-8.48041
▁arasındaki	-8.48082
▁9	-8.48398
▁beraber	-8.48795
▁verdi	-8.48953
oğlu	-8.49995
▁köyün	-8.50106
ine	-8.50414
▁kazandı	-8.50536
▁bilinen	-8.50572
▁dahil	-8.50604
▁birleşik	-8.50827
▁sonucu	-8.51059
▁dönemde	-8.51187
1	-8.51362
▁deniz	-8.51375
▁millî	-8.51426
▁başkanı	-8.51706
▁askeri	-8.51721
ve	-8.51859
at	-8.52095
mi	-8.52136
▁geldi	-8.52286
du	-8.52496
▁döneminde	-8.52817
▁dışında	-8.53314
j	-8.53675
▁kadın	-8.53734
▁itibaren	-8.53827
nowiki	-8.54496
▁yanı	-8.54955
▁etmiştir	-8.55213
▁kalan	-8.55529
▁ona	-8.55557
▁temel	-8.5566
▁m	-8.55935
▁üst	-8.55962
▁sonraki	-8.56054
▁geniş	-8.5608
▁kupası	-8.56091
▁neden	-8.56536
br	-8.56709
▁verilen	-8.56882
ydi	-8.57001
▁iş	-8.57014
▁genç	-8.57035
▁buna	-8.57048
▁böylece	-8.57318
▁bulunduğu	-8.5768
sal	-8.57706
▁partisi	-8.57956
▁beş	-8.58099
▁yapan	-8.58236
▁teknik	-8.58499
▁milyon	-8.58579
▁üçüncü	-8.58624
▁ulusal	-8.58753
▁sahiptir	-8.59245
▁insan	-8.59348
▁ifade	-8.59373
lan	-8.60164
yan	-8.60541
▁ali	-8.6068
ed	-8.60776
no	-8.60918
▁alır	-8.6101
ngiltere	-8.61285
ha	-8.61286
mış	-8.61534
▁olmayan	-8.61864
▁alt	-8.61932
▁maçta	-8.62304
be	-8.62491
▁isimli	-8.62517
▁baş	-8.62688
▁adıyla	-8.62762
▁kaldı	-8.62929
w	-8.63133
▁babası	-8.6319
▁geçen	-8.63796
▁yıllarda	-8.63873
▁bulunur	-8.63891
is	-8.63964
3	-8.63998
▁oyuncu	-8.6405
▁30	-8.64061
ını	-8.64205
▁2.	-8.6423
▁futbol	-8.64254
ter	-8.64275
▁edilir	-8.64554
▁ev	-8.649
▁albüm	-8.6511
il	-8.6518
▁takımı	-8.65528
▁rusya	-8.65602
▁birinci	-8.66276
▁adını	-8.6649
▁günü	-8.66795
▁bilgi	-8.67413
▁yanında	-8.67539
▁resmi	-8.67786
▁sanat	-8.67999
ngiliz	-8.68325
▁aldığı	-8.68371
▁oğlu	-8.68482
▁1.	-8.68528
▁yılı	-8.69125
▁grubu	-8.69186
▁18	-8.69208
▁cumhuriyeti	-8.69281
liği	-8.69289
▁hareket	-8.69336
ke	-8.69784
ydı	-8.70003
lü	-8.70078
▁ayında	-8.70365
▁edilmiştir	-8.70641
▁etmek	-8.70738
ba	-8.70792
os	-8.70837
▁sistemi	-8.70939
▁çoğu	-8.70986
▁iç	-8.71128
▁sultan	-8.71141
ko	-8.71327
▁oldukça	-8.71442
mparatorluğu	-8.71656
▁ünlü	-8.71813
▁idi	-8.72175
mıştır	-8.72214
▁b	-8.72248
cı	-8.72333
▁gerçek	-8.72377
▁ligi	-8.72452
▁sağlık	-8.72726
▁altı	-8.72988
▁söz	-8.73238
▁içerisinde	-8.73288
▁oyun	-8.73782
▁ön	-8.74429
ndeki	-8.74455
▁beri	-8.7453
talya	-8.74575
spor	-8.74627
tu	-8.74629
▁rol	-8.75225
▁dönem	-8.75386
▁""	-8.75468
▁yerel	-8.75801
sini	-8.75805
do	-8.76079
▁ak	-8.76133
▁günümüzde	-8.76228
▁değil	-8.76397
▁sosyal	-8.76606
▁ordusu	-8.76662
▁ülke	-8.77112
▁boş	-8.77213
▁al	-8.77216
▁erkek	-8.77318
▁albümü	-8.77517
ik	-8.77619
▁ödülü	-8.77688
▁fransız	-8.7774
▁kültür	-8.77877
▁forma	-8.78048
▁altın	-8.78154
▁sayı	-8.78295
î	-8.78463
▁alanı	-8.78509
▁ek	-8.78647
sını	-8.7869
▁25	-8.78783
arak	-8.78891
▁çıkar	-8.79199
ton	-8.79265
▁kız	-8.79321
▁başarılı	-8.79429
▁tarım	-8.79822
▁herhangi	-8.79858
▁örneğin	-8.79979
um	-8.7999
▁sonuçlar	-8.80192
▁rus	-8.80256
▁transfer	-8.80839
▁bölümü	-8.80918
▁yayın	-8.81176
tur	-8.81197
▁okulu	-8.81202
gi	-8.8149
▁değildir	-8.81569
▁mücadele	-8.81635
▁katıldı	-8.8183
▁inşa	-8.81889
▁uygun	-8.82122
bi	-8.82219
▁haline	-8.82511
▁ordu	-8.82546
▁ettiği	-8.82747
der	-8.82792
▁sayıda	-8.82973
mak	-8.83051
▁yani	-8.8311
ak	-8.83161
ndaki	-8.83225
ver	-8.83296
▁kullanılır	-8.8332
▁adet	-8.83521
▁girdi	-8.83619
za	-8.83654
▁new	-8.83903
▁bilim	-8.83923
▁merkez	-8.83977
▁yıllarında	-8.84552
▁ayrı	-8.84616
çi	-8.84628
va	-8.8472
▁başlar	-8.84909
▁hiçbir	-8.85007
▁2009	-8.85054
▁bile	-8.85167
▁bunu	-8.85598
▁2010	-8.85635
▁başına	-8.85687
▁para	-8.85819
▁dizi	-8.85894
im	-8.85951
▁benzer	-8.86206
▁yaşayan	-8.86431
it	-8.86445
▁yıllık	-8.86857
nün	-8.86862
▁and	-8.8704
▁yapı	-8.87167
▁ismi	-8.87572
▁2014	-8.87738
▁ki	-8.8793
▁yapmıştır	-8.88147
▁2008	-8.88269
▁çünkü	-8.88375
ur	-8.88609
▁güç	-8.88752
▁kurulan	-8.88854
▁yardım	-8.8893
go	-8.8893
▁şeklinde	-8.89042
▁sonrasında	-8.89195
▁c	-8.89255
▁hizmet	-8.89365
luk	-8.89461
▁24	-8.89492
▁2011	-8.89871
lama	-8.89878
▁geçti	-8.90023
miştir	-8.90079
""	-8.90327
▁sahibi	-8.90406
▁mısır	-8.90476
▁maç	-8.90489
cu	-8.90801
st	-8.90916
▁3.	-8.90955
zi	-8.91026
▁önceki	-8.9136
han	-8.91482
ing	-8.91485
▁başlayan	-8.91538
ngilizce	-8.91963
▁ilan	-8.9202
▁ses	-8.92031
▁beyaz	-8.92059
bir	-8.92139
▁sonucunda	-8.92164
▁paris	-8.92346
▁kendisine	-8.92493
sine	-8.92799
dür	-8.9298
miş	-8.93104
kinci	-8.93224
▁göç	-8.93312
▁başında	-8.93431
▁temsil	-8.93539
▁elektrik	-8.93731
▁çin	-8.93909
▁üyesi	-8.9398
et	-8.94131
▁2007	-8.94352
▁eğer	-8.9438
▁durum	-8.94486
▁sovyet	-8.94643
▁ara	-8.94705
▁han	-8.94709
▁kral	-8.94725
▁konusunda	-8.94929
▁devleti	-8.95302
▁etki	-8.95438
▁bunlar	-8.95522
▁22	-8.95672
▁meydana	-8.95718
▁güçlü	-8.95893
▁hafta	-8.95972
▁maçında	-8.96005
ch	-8.96098
▁dil	-8.96104
th	-8.96128
▁bölge	-8.96151
▁başlamıştır	-8.96209
▁at	-8.96687
▁yazar	-8.96867
4	-8.97001
siz	-8.97026
▁çalıştı	-8.97078
▁vardı	-8.97291
▁iddia	-8.973
▁final	-8.97454
▁19	-8.97541
▁yaygın	-8.97613
▁artık	-8.97629
▁2015	-8.97734
ö	-8.97787
slam	-8.97871
▁ortak	-8.97871
▁yok	-8.98004
▁sık	-8.98041
maktadır	-8.98115
▁2012	-8.98153
▁ağır	-8.98531
▁kısmı	-8.98597
▁filmin	-8.98991
▁kurulu	-8.99035
▁yüzyılda	-8.99143
▁veren	-8.99249
▁21	-8.99437
co	-8.99514
▁destek	-8.99617
▁defa	-8.99782
▁verir	-8.99909
ja	-9.0012
lığı	-9.00254
▁din	-9.00286
len	-9.0037
▁kontrol	-9.00447
▁köyü	-9.00468
▁kardeşi	-9.00503
nü	-9.00512
▁çocuk	-9.00579
▁izin	-9.00597
▁tamamen	-9.00612
▁saat	-9.00626
leriyle	-9.00639
teki	-9.00722
▁an	-9.00769
▁köyde	-9.00773
▁amerikan	-9.01007
ması	-9.01093
▁23	-9.01109
▁2006	-9.01165
men	-9.01265
▁sahne	-9.01327
▁dış	-9.01484
lerdir	-9.01564
vi	-9.01718
▁tarih	-9.01756
geçersiz	-9.02092
▁amacıyla	-9.02205
köy	-9.02505
▁filmi	-9.02894
mektedir	-9.02918
▁bizans	-9.03026
▁modern	-9.03075
▁sağlayan	-9.03098
ze	-9.03102
▁belediye	-9.0324
▁üzerinden	-9.03358
▁yönetim	-9.03459
▁video	-9.03599
▁enerji	-9.03605
▁olabilir	-9.03669
▁araştırma	-9.0392
▁verdiği	-9.03955
kan	-9.04485
▁ö	-9.04534
▁yılından	-9.04575
▁can	-9.04692
▁doğal	-9.04697
ek	-9.04718
▁ederek	-9.04724
▁mustafa	-9.0485
▁sabit	-9.04864
▁güzel	-9.04911
kten	-9.0507
▁mahallenin	-9.05131
▁kan	-9.05251
▁kitap	-9.05255
▁serbest	-9.05569
sen	-9.05766
▁kendisi	-9.06036
▁diye	-9.06099
lo	-9.06162
▁windows	-9.06214
▁kuvvetleri	-9.06218
▁ilçesine	-9.06498
▁san	-9.06531
▁2013	-9.06568
larıyla	-9.0668
▁çalışma	-9.06693
▁hiç	-9.06918
▁kralı	-9.06981
ber	-9.06991
▁yılına	-9.07152
▁siyasi	-9.07218
taki	-9.07286
▁yerleşim	-9.07376
as	-9.07422
▁olmasına	-9.07518
tü	-9.0774
▁mehmet	-9.07752
▁x	-9.07803
▁28	-9.07848
▁yaşında	-9.07881
▁düşük	-9.07981
▁yaz	-9.08062
sız	-9.08115
▁etmektedir	-9.08213
▁bağımsız	-9.08276
▁john	-9.08507
▁almaktadır	-9.08553
▁bulundu	-9.08714
▁nedenle	-9.08798
▁taş	-9.08846
inde	-9.08993
inin	-9.09143
▁sağ	-9.09202
▁tür	-9.09299
▁çalışan	-9.09379
▁telefon	-9.09567
▁to	-9.09592
▁ülkenin	-9.09734
▁sürekli	-9.09835
▁kat	-9.09986
▁kendini	-9.10039
▁sayesinde	-9.10093
▁ekonomik	-9.10145
mo	-9.10169
▁döndü	-9.10207
▁karşısında	-9.1036
▁televizyon	-9.10529
▁bölgesi	-9.10584
▁mi	-9.10589
van	-9.10672
sinde	-9.10676
▁krallık	-9.10739
▁kızı	-9.10741
▁–	-9.10962
▁re	-9.10989
ck	-9.10996
▁kötü	-9.11094
▁şey	-9.11383
▁sol	-9.11487
▁nüfus	-9.11554
▁26	-9.11581
bo	-9.11652
▁v	-9.11684
or	-9.11875
zmir	-9.12037
▁olsa	-9.12049
▁göz	-9.12133
ist	-9.1218
▁mö	-9.12243
gen	-9.1228
▁iken	-9.12287
kar	-9.12371
▁piyasaya	-9.12412
▁tiyatro	-9.12447
▁edilmiş	-9.12563
▁sezonu	-9.12595
▁yana	-9.12664
srail	-9.12714
▁annesi	-9.12868
▁bölüm	-9.12882
▁%	-9.12901
▁27	-9.1304
▁bunların	-9.13099
▁verildi	-9.13307
katılım	-9.1337
▁güneş	-9.13519
▁hatta	-9.13594
▁seçildi	-9.13733
▁süper	-9.14147
lardır	-9.14202
ip	-9.14226
▁hale	-9.14239
▁metre	-9.14246
▁konu	-9.14267
▁zorunda	-9.14327
▁yardımcı	-9.14409
▁yoğun	-9.14472
▁anda	-9.14502
▁top	-9.148
▁sene	-9.14876
▁oynadı	-9.14904
▁şehri	-9.15171
▁düzenlenen	-9.15275
çe	-9.15317
▁bugün	-9.15322
▁100	-9.15663
▁çift	-9.15758
▁grubun	-9.15977
▁2005	-9.1616
▁sanatçı	-9.16418
▁parçası	-9.16747
▁york	-9.16781
▁yarışması	-9.16826
▁söyler	-9.16861
▁yılının	-9.16974
▁yapılmıştır	-9.17018
sına	-9.17125
▁2004	-9.17161
fa	-9.17232
yo	-9.17361
▁olmuş	-9.1746
▁örnek	-9.17709
▁yalnızca	-9.17953
▁giriş	-9.18217
▁aile	-9.18423
fi	-9.18592
▁spor	-9.18642
▁adam	-9.18665
ley	-9.18708
▁yolu	-9.18727
spanya	-9.19084
▁sona	-9.19116
▁alarak	-9.19251
▁oluşur	-9.19597
<	-9.19675
sh	-9.19802
▁anlamına	-9.19867
▁puan	-9.19923
▁2000	-9.19994
▁hızlı	-9.20227
▁dr	-9.2026
▁29	-9.20512
▁gece	-9.20591
▁yaş	-9.2067
▁afrika	-9.20673
▁bölgede	-9.20805
▁bilgisayar	-9.21203
ğ	-9.21426
▁veri	-9.21602
-19	-9.21623
ly	-9.21772
▁kar	-9.21961
▁yahudi	-9.2211
▁devletleri	-9.22168
▁yabancı	-9.22401
liğe	-9.22454
ında	-9.22588
▁ilgi	-9.22632
▁[[	-9.22719
▁derece	-9.2272
▁dünyanın	-9.22858
ger	-9.22873
▁biridir	-9.22909
▁ileri	-9.22946
▁hala	-9.23214
gan	-9.23239
ır	-9.23439
▁maçı	-9.23492
▁iklimi	-9.23602
▁çalışmaları	-9.23806
▁bundan	-9.2394
pa	-9.23976
▁cumhuriyet	-9.24007
▁yüzyıl	-9.24017
ov	-9.24023
▁2016	-9.24038
▁attı	-9.24183
▁kendisini	-9.24226
▁tanrı	-9.24391
▁yıldız	-9.24482
▁dünyaya	-9.24487
leme	-9.24496
▁arası	-9.24498
yen	-9.24505
▁sistem	-9.24628
▁mezun	-9.24671
▁savunma	-9.24682
▁halinde	-9.24728
▁yazdığı	-9.24749
▁avusturya	-9.24783
▁yunan	-9.24897
▁zor	-9.25212
▁ar	-9.25261
▁arkadaşı	-9.25265
▁yedi	-9.25311
▁okul	-9.25418
▁adaylık	-9.2544
▁fakültesi	-9.25588
▁fark	-9.2583
▁yapımı	-9.25901
▁mevcuttur	-9.25999
▁sinema	-9.26148
▁dolayısıyla	-9.26394
–	-9.26432
▁lisesi	-9.26523
▁içeren	-9.2661
▁bakanlığı	-9.26861
▁suyu	-9.26902
▁adına	-9.27258
tik	-9.27413
▁bar	-9.27455
ay	-9.27489
▁g	-9.2754
▁şehrin	-9.27626
fe	-9.27824
▁yaşam	-9.2786
erek	-9.27912
▁hayatını	-9.28005
▁belli	-9.28018
▁ben	-9.28052
▁takip	-9.28054
▁londra	-9.28085
mek	-9.28098
▁şebekesi	-9.28243
▁ticaret	-9.28476
▁türkçe	-9.28516
▁be	-9.28544
▁av	-9.28589
▁sonrası	-9.28621
▁gelmiştir	-9.28737
▁uzak	-9.28749
▁geleneksel	-9.29007
▁canlı	-9.29195
▁sarı	-9.29523
▁radyo	-9.29532
▁yayınlandı	-9.29745
▁edilmektedir	-9.29842
▁kitabı	-9.3029
▁sovyetler	-9.30356
sinin	-9.30418
çı	-9.30422
unu	-9.30666
▁çevre	-9.30708
▁değişik	-9.30874
▁olma	-9.30901
▁profesyonel	-9.31074
5	-9.31158
▁metal	-9.31268
]]	-9.31305
ına	-9.31337
▁öz	-9.31377
iz	-9.31442
▁demir	-9.31502
▁single	-9.31608
▁başarı	-9.31721
▁(19	-9.31727
▁güvenlik	-9.32182
="2"|	-9.32248
▁yüzden	-9.32336
▁normal	-9.32399
▁klasik	-9.325
▁ortalama	-9.32559
▁aslında	-9.3258
mesi	-9.32611
▁ahmet	-9.32663
▁dair	-9.32674
▁doğdu	-9.32854
com	-9.33012
▁galatasaray	-9.33099
▁üzerindeki	-9.33145
▁yapıldı	-9.33206
ng	-9.33225
▁uzay	-9.33231
▁eşi	-9.33496
▁görevi	-9.33532
▁başta	-9.33593
▁azerbaycan	-9.33699
▁nehri	-9.33826
▁değer	-9.33843
▁satın	-9.33958
ss	-9.34105
6	-9.34111
▁altına	-9.34205
▁suriye	-9.34233
▁tane	-9.34255
▁kesin	-9.34339
▁amerikalı	-9.34464
mer	-9.34468
sında	-9.34556
▁kurulmuştur	-9.34722
▁roman	-9.34793
▁nüfusu	-9.34884
▁ilçe	-9.34896
▁isim	-9.34925
▁zengin	-9.34983
▁arap	-9.35086
▁oynanan	-9.35103
ça	-9.35214
talyan	-9.35221
▁belirli	-9.35284
▁milletvekili	-9.35381
▁alanında	-9.35406
▁tercih	-9.35459
▁konusu	-9.35501
▁mal	-9.35531
="6"	-9.35565
▁kullanarak	-9.35674
dığı	-9.3573
▁sağlar	-9.35775
▁yayınlanan	-9.35785
▁ptt	-9.35913
ji	-9.35979
▁etkisi	-9.35984
▁doktor	-9.36153
▁model	-9.3622
▁yönetimi	-9.36231
▁iii	-9.36232
▁terk	-9.3632
▁kaynak	-9.36559
▁finalde	-9.36562
▁yönelik	-9.37153
ev	-9.37165
▁mevcut	-9.3722
▁gösterir	-9.37252
diği	-9.37303
ol	-9.37372
▁ailesi	-9.37448
▁bununla	-9.37467
▁etmiş	-9.37487
▁barış	-9.37829
▁albümün	-9.37921
▁etme	-9.37939
ul	-9.38014
▁antik	-9.3803
▁yazı	-9.38066
▁dönemin	-9.38166
▁kent	-9.38408
▁dördüncü	-9.38488
▁asker	-9.38594
▁karadeniz	-9.38595
▁üniversite	-9.38663
ner	-9.38667
tar	-9.3874
▁mu	-9.38752
▁işgal	-9.38839
▁kur	-9.38888
▁yeri	-9.38935
▁orada	-9.38936
▁hak	-9.38994
▁üretim	-9.39021
can	-9.39052
▁şirketi	-9.39052
▁kemal	-9.39328
▁kurdu	-9.39334
▁öne	-9.39353
nce	-9.39434
pi	-9.39493
▁sanayi	-9.39503
▁eser	-9.3953
▁dili	-9.39534
▁opera	-9.3955
▁olay	-9.39687
▁görülür	-9.39809
ru	-9.39942
▁fenerbahçe	-9.3996
▁arka	-9.40196
▁aşağıdaki	-9.40222
▁yazdı	-9.40508
▁bilinir	-9.40537
ey	-9.40551
so	-9.4056
▁vermiştir	-9.40606
▁yapılmış	-9.40608
▁eş	-9.40617
▁ku	-9.40623
▁başkanlığı	-9.40651
▁2003	-9.4088
▁asya	-9.40884
▁itibarıyla	-9.40887
▁nasıl	-9.40909
▁50	-9.40918
▁yapmak	-9.40937
▁dakika	-9.40942
▁genelde	-9.40968
▁2002	-9.41092
▁sonuç	-9.41129
▁kilise	-9.41173
▁madde	-9.412
▁efendi	-9.41211
)"	-9.41271
▁general	-9.41431
▁bazen	-9.41481
▁arada	-9.4151
maya	-9.4158
▁süren	-9.41588
▁parça	-9.41595
▁şampiyonası	-9.41595
▁edebiyat	-9.41597
▁dikkat	-9.41638
▁öğrenci	-9.41651
her	-9.41661
▁yüz	-9.41663
▁takımın	-9.41715
let	-9.41779
▁kendine	-9.41801
▁toprak	-9.41816
▁kırmızı	-9.41925
▁ilinin	-9.41959
▁dönemi	-9.41984
▁ateş	-9.42003
▁erken	-9.42104
▁yüzyılın	-9.42169
▁açıkladı	-9.42276
ia	-9.42299
▁tv	-9.42384
▁sözleşme	-9.42385
▁kale	-9.42413
▁hukuk	-9.42486
▁kazanan	-9.42541
▁so	-9.42697
▁söyledi	-9.42737
▁verilmiştir	-9.42763
▁resim	-9.42796
lığa	-9.42825
▁beşiktaş	-9.42894
▁me	-9.432
▁evi	-9.43204
ry	-9.43207
▁kaynağı	-9.43328
▁yeşil	-9.43346
▁bölümünde	-9.43354
▁popüler	-9.43398
▁gösteren	-9.43402
miz	-9.43486
▁dini	-9.43585
▁adında	-9.43677
▁31	-9.4369
▁geç	-9.43693
ğı	-9.43712
▁sebep	-9.43753
ının	-9.43886
tür	-9.44111
▁üye	-9.4433
▁açısından	-9.44369
▁taşıyan	-9.44908
ad	-9.44937
▁denir	-9.45314
▁kızıl	-9.45323
▁mahallede	-9.45528
▁silah	-9.45668
vo	-9.45678
mar	-9.45723
▁olmadığı	-9.45814
▁kişinin	-9.45984
▁çıkmıştır	-9.45992
am	-9.46054
▁japonya	-9.46169
▁sınır	-9.46253
min	-9.4629
▁kişilik	-9.46307
▁ışık	-9.46319
▁yan	-9.46331
▁hükümet	-9.46388
▁siyah	-9.4642
iye	-9.46538
▁yerini	-9.4658
kullanılmaktadır	-9.46648
kları	-9.46873
▁çizgi	-9.46928
▁krallığı	-9.47029
▁katı	-9.47031
▁bölgesinde	-9.47134
▁gitti	-9.47285
ser	-9.47293
▁kararı	-9.47376
▁kuruldu	-9.47487
▁yapılır	-9.47588
▁polis	-9.4761
▁böyle	-9.47612
▁seri	-9.47784
▁şirket	-9.47813
▁oyunu	-9.47937
▁basketbol	-9.48016
▁etkili	-9.48058
▁asıl	-9.4808
land	-9.48082
▁içindeki	-9.48135
▁eurovision	-9.48223
▁başkan	-9.48362
▁sonradan	-9.48366
▁başkenti	-9.4839
ah	-9.48446
▁f	-9.48475
▁ağ	-9.48488
▁4.	-9.48545
▁şarkısı	-9.48648
▁yaşadığı	-9.4866
▁19.	-9.48698
▁müslüman	-9.48716
acak	-9.48798
▁yunanistan	-9.48856
▁gerek	-9.48925
▁özelliği	-9.4895
ts	-9.49182
▁sert	-9.49205
▁2001	-9.4924
▁etmeye	-9.49248
▁halkı	-9.49468
▁web	-9.49471
▁babasının	-9.4953
▁sınırları	-9.49664
▁yapmış	-9.4972
▁bilimsel	-9.49828
▁fa	-9.49877
▁haber	-9.49916
▁plan	-9.50022
▁orijinal	-9.50055
▁tahmin	-9.50085
▁=	-9.50151
▁avustralya	-9.50326
▁proje	-9.50609
san	-9.50649
sının	-9.50665
▁giren	-9.5067
▁içerir	-9.5078
▁rock	-9.50846
20	-9.50921
▁öğretim	-9.50936
▁durumda	-9.5098
les	-9.51019
▁ziyaret	-9.51026
▁futbolcu	-9.51142
▁doğrudan	-9.5115
▁yavaş	-9.51203
▁ceza	-9.51594
▁biçimde	-9.51678
▁eğitimi	-9.51696
▁yüzünden	-9.51696
q	-9.51725
zo	-9.51743
▁henüz	-9.51847
lin	-9.51853
lük	-9.51944
▁alınan	-9.52032
7	-9.52076
▁şöyle	-9.52119
▁bunlardan	-9.52145
▁onları	-9.52173
▁yerde	-9.52386
bel	-9.52424
▁yazarı	-9.52428
▁tarihli	-9.52575
dy	-9.52596
▁kanada	-9.52705
▁pazar	-9.52706
▁as	-9.52832
▁yılın	-9.52868
▁uefa	-9.52899
▁sebebiyle	-9.52908
▁durumu	-9.52975
▁berlin	-9.53053
▁standart	-9.53074
▁halen	-9.53245
▁w	-9.53324
▁almak	-9.53429
▁ekonomisi	-9.5348
▁mar	-9.53523
▁gücü	-9.53544
▁dalga	-9.53566
▁yere	-9.53595
!	-9.53608
off	-9.5364
▁ayrıldı	-9.53649
▁alındı	-9.54024
▁hakkı	-9.54053
▁muhammed	-9.54123
▁içine	-9.54128
▁pi	-9.5413
▁gerekli	-9.54149
izm	-9.54223
▁tespit	-9.54236
▁microsoft	-9.54286
▁filmde	-9.54299
▁kalmıştır	-9.54348
▁sınıf	-9.54495
sin	-9.54558
▁basit	-9.54581
▁mo	-9.54587
▁hollanda	-9.54604
▁bas	-9.54639
▁uygulama	-9.54683
▁kullanılmıştır	-9.54797
ut	-9.54862
▁seçim	-9.54875
▁müziği	-9.54963
lanmış	-9.55107
10	-9.55139
▁insanların	-9.55244
ebilir	-9.55258
▁performans	-9.55438
hi	-9.55439
▁görevini	-9.55484
▁baba	-9.55626
▁anti	-9.55684
▁imza	-9.55808
mon	-9.55861
▁çocuğu	-9.55886
▁olacak	-9.5592
▁araya	-9.55929
ecek	-9.55978
▁tahta	-9.56031
▁enstitüsü	-9.56089
▁gemi	-9.56108
▁eseri	-9.56142
▁kaybetti	-9.56197
▁bo	-9.56238
▁yapar	-9.56446
je	-9.56601
▁40	-9.56679
▁önünde	-9.56685
▁teslim	-9.56732
▁getirildi	-9.56759
fer	-9.56843
▁festivali	-9.56972
▁sosyalist	-9.56997
▁dağı	-9.57081
▁saldırı	-9.57228
▁pro	-9.57331
▁ödülleri	-9.57334
▁öldü	-9.5743
50	-9.57493
▁gelmektedir	-9.57501
▁vi	-9.57588
30	-9.57598
▁üyeleri	-9.57603
▁geçer	-9.57652
var	-9.57785
▁ödül	-9.57823
▁amacı	-9.57984
▁bulunmuştur	-9.58142
brahim	-9.58198
▁der	-9.58203
ova	-9.58217
▁edilmesi	-9.58264
▁kulübü	-9.58295
▁for	-9.58403
▁yıllar	-9.58492
▁çalışmalar	-9.58495
▁internet	-9.58564
▁onların	-9.58566
▁soğuk	-9.5858
▁gaz	-9.5863
▁bilinmektedir	-9.58665
▁giydi	-9.58743
▁ada	-9.58754
▁michael	-9.58849
lanan	-9.58855
▁ince	-9.58862
abilir	-9.58877
ku	-9.59013
▁sefer	-9.59062
▁engel	-9.59129
▁hayvan	-9.59149
▁nedeni	-9.59183
▁sıcak	-9.59221
▁kazanmıştır	-9.59248
="1"	-9.59286
▁co	-9.59319
▁kulüp	-9.59334
▁verilir	-9.59368
▁1999	-9.59392
po	-9.59398
▁devre	-9.59435
▁hedef	-9.5946
▁zarar	-9.59569
▁gider	-9.59596
▁hasan	-9.59601
▁mümkün	-9.59601
▁ülkede	-9.59669
▁geçiş	-9.59743
▁tur	-9.59746
▁oynadığı	-9.59779
▁almış	-9.5978
▁yüzey	-9.59894
▁ocağı	-9.59959
▁ölüm	-9.60009
uz	-9.60252
▁no	-9.60286
ği	-9.60317
inden	-9.60338
ıp	-9.60401
▁gizli	-9.60446
▁osman	-9.60465
▁olduğundan	-9.605
▁sekiz	-9.60573
▁köye	-9.60591
▁do	-9.60597
▁yapısı	-9.60605
▁karşılık	-9.60865
▁stüdyo	-9.60872
▁programı	-9.60905
▁anlaşma	-9.60949
▁görüntü	-9.61189
▁irak	-9.6121
"),	-9.61274
▁ertesi	-9.61461
▁park	-9.615
▁gül	-9.61526
pe	-9.61569
▁david	-9.61601
▁gördü	-9.61663
▁2011'	-9.61723
▁kol	-9.61804
▁mü	-9.61825
▁bakanı	-9.61837
▁mahallesi	-9.61842
▁komünist	-9.61871
▁aktif	-9.61913
▁pop	-9.61937
▁yapmaya	-9.62013
▁türü	-9.62107
▁lise	-9.6214
▁saray	-9.6222
sk	-9.6234
▁sürdü	-9.62393
▁or	-9.62482
▁tamamladı	-9.62515
▁yerli	-9.6252
ür	-9.62633
▁adamı	-9.62664
iyle	-9.6274
▁finale	-9.62793
▁geçirdi	-9.62814
▁anne	-9.62859
▁halde	-9.62873
▁ölümünden	-9.629
▁komutanı	-9.62955
▁ho	-9.62965
▁başlarında	-9.62978
▁doğan	-9.63011
don	-9.63186
▁bazıları	-9.63288
▁biraz	-9.63323
▁ba	-9.63356
din	-9.63631
▁çıkış	-9.63692
kleri	-9.6373
▁(18	-9.63746
▁alanda	-9.63776
ker	-9.63813
▁2017	-9.63862
ho	-9.63878
▁takımının	-9.63922
▁hükümeti	-9.63924
▁ermeni	-9.63935
▁baskı	-9.63959
▁ticari	-9.63999
▁alma	-9.6403
▁art	-9.6405
▁ısı	-9.64072
▁birisi	-9.64094
id	-9.64105
▁2009'	-9.64194
▁karşın	-9.64225
▁atandı	-9.64482
lardı	-9.64585
▁ölçüde	-9.64591
▁per	-9.64593
▁atatürk	-9.64622
▁kurulmuş	-9.64632
▁sağladı	-9.6482
gar	-9.64839
▁insanlar	-9.64849
▁şiir	-9.64884
▁ad	-9.64908
▁motor	-9.65064
▁kanal	-9.65145
▁hazır	-9.65193
▁j	-9.65209
▁neredeyse	-9.65326
▁çağ	-9.65337
▁araç	-9.65398
▁yandan	-9.6543
▁kilisesi	-9.65464
▁içme	-9.65589
kon	-9.65634
yor	-9.65697
▁iklim	-9.65712
▁koruma	-9.65808
▁bal	-9.65816
ster	-9.65852
▁günlük	-9.65928
▁fiziksel	-9.65945
▁akdeniz	-9.66002
▁et	-9.6609
▁başlıca	-9.66117
▁olmadığını	-9.66122
▁cami	-9.6624
▁maçına	-9.66278
▁muharebesi	-9.66325
▁çoğunlukla	-9.66345
▁lisans	-9.66435
▁şarkıcı	-9.66512
layan	-9.66519
▁yük	-9.6657
▁göstermektedir	-9.66691
ör	-9.66693
▁müzesi	-9.66724
8	-9.66757
kara	-9.66768
▁kore	-9.66862
per	-9.66894
▁yaparak	-9.6691
▁hareketi	-9.66984
sveç	-9.67001
▁tıp	-9.67037
▁ciddi	-9.67147
9	-9.67344
▁kıbrıs	-9.67346
▁van	-9.67424
▁şah	-9.67475
tepe	-9.67599
▁ha	-9.67744
▁geldiği	-9.6778
ben	-9.67836
▁kalma	-9.67867
▁bursa	-9.679
▁hindistan	-9.67903
▁gerekir	-9.67929
▁sivil	-9.68119
▁çalışmaya	-9.68245
▁venedik	-9.68303
dü	-9.68436
▁tedavi	-9.68853
▁james	-9.68854
bey	-9.68869
ty	-9.68921
▁etmesi	-9.68948
▁nokta	-9.6895
up	-9.69029
▁özellikleri	-9.69081
▁suç	-9.69149
▁dışı	-9.69161
-1	-9.69284
▁hayat	-9.69502
▁dönüş	-9.69545
bar	-9.69548
ok	-9.69612
▁karakter	-9.69687
▁giderek	-9.69692
▁kullanımı	-9.69814
▁halka	-9.69925
▁şubesi	-9.69974
▁milli	-9.69999
▁aşağı	-9.70074
lanır	-9.70099
▁bitki	-9.701
▁il	-9.70101
▁saha	-9.70108
=	-9.70114
▁kaya	-9.70181
▁renk	-9.70197
▁giden	-9.70203
▁fifa	-9.7025
▁önem	-9.70314
▁2012'	-9.70339
▁saf	-9.70419
▁zamanında	-9.70499
▁bağ	-9.70589
▁emir	-9.70753
▁polonya	-9.70759
▁kamu	-9.70787
▁yapılmaktadır	-9.70803
▁sağlamak	-9.70831
▁h	-9.70852
ot	-9.71107
lenen	-9.71169
sviçre	-9.71209
hane	-9.71244
▁hakları	-9.71282
▁süleyman	-9.7134
▁geçmiş	-9.71374
ic	-9.714
▁ister	-9.71413
▁kadınlar	-9.71583
▁madalya	-9.71633
gu	-9.71664
▁moskova	-9.71767
▁yağ	-9.71773
▁robert	-9.71787
şe	-9.71812
]	-9.7182
▁derneği	-9.71868
▁seçimleri	-9.71904
▁dağ	-9.72037
▁cm	-9.72078
60	-9.72178
▁zayıf	-9.72214
▁peter	-9.72279
▁yemek	-9.72313
▁yapım	-9.72365
▁akademisi	-9.72435
▁‘	-9.72479
▁kültürel	-9.72519
▁şarkının	-9.72573
▁mac	-9.72585
▁ata	-9.72674
▁öncesi	-9.72752
▁teknoloji	-9.728
▁yükseldi	-9.72841
▁aşırı	-9.72899
▁go	-9.73037
▁pa	-9.73041
yken	-9.73055
▁aralarında	-9.73068
▁dizisi	-9.731
▁yayımlandı	-9.73113
▁ilişki	-9.73143
▁derin	-9.73191
▁kim	-9.73239
▁gölü	-9.7325
▁fi	-9.73262
türk	-9.73481
nsan	-9.73497
▁1998	-9.73559
▁başardı	-9.73595
ından	-9.73692
▁kutsal	-9.7371
▁he	-9.73752
tor	-9.73778
▁1990	-9.738
landı	-9.73809
▁kış	-9.73824
▁1994	-9.73908
▁halkın	-9.7391
▁toplum	-9.74166
▁konser	-9.74222
▁eline	-9.74228
▁üretimi	-9.74241
▁lideri	-9.74442
▁2010'	-9.74475
▁cam	-9.74505
net	-9.74585
▁&	-9.74698
▁uçak	-9.74746
▁kökenli	-9.74773
mu	-9.74774
mıştı	-9.74786
▁çapında	-9.74974
▁açtı	-9.7499
▁yoluyla	-9.75073
▁oldukları	-9.751
▁papa	-9.75128
▁2008'	-9.75184
yum	-9.75235
lenmiş	-9.75439
▁tasarım	-9.75451
▁hangi	-9.7562
▁kişiler	-9.757
▁sezonun	-9.75926
▁1997	-9.75934
18	-9.75979
▁ağa	-9.76051
▁cumhurbaşkanı	-9.7616
▁gereken	-9.76263
▁çalışır	-9.76273
▁katılan	-9.76359
▁kayıt	-9.76499
▁ko	-9.76513
▁yapma	-9.76592
▁idare	-9.76752
"<	-9.76842
▁evlendi	-9.77062
?	-9.77138
ana	-9.77142
▁oyuncusu	-9.77171
ım	-9.77206
▁aydın	-9.77303
liğini	-9.77391
▁kolay	-9.774
▁idam	-9.77511
▁günümüze	-9.7753
▁filminde	-9.77586
▁meclisi	-9.77618
▁antlaşması	-9.77623
▁hu	-9.77725
meye	-9.77754
▁ismini	-9.77782
▁ulaştı	-9.77853
▁0	-9.78038
▁1992	-9.78052
▁1996	-9.78071
met	-9.78129
▁birbirine	-9.78149
▁dile	-9.78151
▁yazılım	-9.78154
▁davet	-9.78161
▁2007'	-9.78194
▁getirdi	-9.78217
▁dek	-9.78267
▁tip	-9.78288
▁mm	-9.78291
▁hücre	-9.78328
▁pe	-9.78463
▁fe	-9.7853
▁tarihleri	-9.78559
sü	-9.78604
▁görülen	-9.7861
▁gösterdi	-9.78638
eli	-9.78648
é	-9.78734
▁yapmaktadır	-9.78813
▁yayınladı	-9.78881
▁kullanılabilir	-9.78971
▁geçmiştir	-9.79017
▁jüri	-9.79027
▁oluşturan	-9.79083
▁yasa	-9.79125
▁kendisinin	-9.7917
▁şair	-9.7919
baş	-9.79258
▁yönetmen	-9.79287
he	-9.793
ant	-9.79303
▁hızla	-9.79318
▁çekti	-9.79329
▁faaliyet	-9.79355
başı	-9.79388
▁oluşmaktadır	-9.7941
▁play	-9.79414
▁oluşturur	-9.79484
▁buldu	-9.79495
ret	-9.79544
▁olduğuna	-9.79556
tra	-9.7957
▁hal	-9.79587
rt	-9.79591
▁hayatı	-9.79602
▁dizinin	-9.79605
şi	-9.79629
▁karmaşık	-9.79811
▁paul	-9.79819
yon	-9.79946
▁apple	-9.80103
▁2014'	-9.80345
▁hüseyin	-9.80441
▁bölgeye	-9.80565
nca	-9.8059
▁listesinde	-9.80651
ny	-9.8067
▁felsefe	-9.80702
▁kas	-9.80872
▁program	-9.80896
▁iletişim	-9.80904
▁orman	-9.80975
▁1991	-9.80982
▁nazi	-9.81011
▁zamanla	-9.81127
▁sergi	-9.8131
ren	-9.81413
▁projesi	-9.81479
▁istifa	-9.81602
▁konseyi	-9.81669
▁silahlı	-9.81731
▁bina	-9.8175
▁işaret	-9.81872
▁2015'	-9.82013
▁uzaklıktadır	-9.82022
▁200	-9.82046
▁takımına	-9.8207
▁küme	-9.8234
▁gazete	-9.8236
▁politik	-9.82426
▁metin	-9.82555
▁esas	-9.82568
12	-9.82584
▁oyunun	-9.82618
▁anlamda	-9.82623
taş	-9.82636
▁civarında	-9.82653
25	-9.82665
▁kişisel	-9.82678
▁dünyada	-9.82679
▁edilebilir	-9.82702
sak	-9.82735
▁noktası	-9.82762
▁adlandırılan	-9.82787
▁ulaşımı	-9.82792
▁5.	-9.82794
▁durumunda	-9.82837
▁con	-9.82849
kı	-9.82855
▁çalışması	-9.82904
▁2013'	-9.82952
dere	-9.83042
▁kuzeyinde	-9.83079
▁mehmed	-9.83113
▁meclis	-9.83146
▁şampiyonu	-9.83168
▁eserleri	-9.83199
lenir	-9.83203
▁zamanlarda	-9.83229
▁ekonomi	-9.83261
▁1995	-9.83344
▁dans	-9.8337
▁resmî	-9.8344
▁düşman	-9.83463
▁belediyesi	-9.83478
▁kapalı	-9.83503
▁aracılığıyla	-9.83545
▁mor	-9.83606
unun	-9.83615
▁bugünkü	-9.83659
liğin	-9.83677
▁güneyinde	-9.83677
▁ayı	-9.83811
▁aksine	-9.83812
▁sıcaklık	-9.8392
▁ab	-9.8405
▁gümüş	-9.84074
tes	-9.84206
lçe	-9.84344
▁düzenli	-9.84416
▁gözlem	-9.84419
▁ukrayna	-9.84433
ara	-9.84459
▁üretilen	-9.8452
▁ekibi	-9.84545
▁edip	-9.84589
▁çağı	-9.84599
▁“"	-9.84645
▁kap	-9.84769
▁teklif	-9.84799
▁bölgenin	-9.84836
ap	-9.84841
▁mah	-9.84906
▁yeterli	-9.8491
eri	-9.84929
80	-9.85113
▁oyunları	-9.852
▁kal	-9.85209
▁düşünce	-9.85224
▁has	-9.85233
▁yarışma	-9.85277
▁yaşındayken	-9.85293
▁ortadan	-9.85319
11	-9.85442
dar	-9.85491
ron	-9.85499
▁darbe	-9.85526
▁kullanan	-9.8553
▁camii	-9.85542
▁eşit	-9.85545
▁ikisi	-9.85579
▁şampiyon	-9.85609
▁elektronik	-9.85629
ham	-9.85657
▁ilköğretim	-9.85716
lanma	-9.85735
▁von	-9.85754
▁kuvvet	-9.85776
▁doğum	-9.85825
▁dik	-9.85951
▁kuru	-9.85965
▁elinde	-9.8597
▁bilgiler	-9.86
▁20.	-9.86001
▁medya	-9.86042
40	-9.86073
▁işlem	-9.86324
▁önceden	-9.86336
▁1993	-9.86347
şa	-9.8653
▁yaşadı	-9.86745
▁anahtar	-9.86829
"”	-9.86932
▁kullandığı	-9.87004
od	-9.87005
▁sonlarında	-9.87037
▁yılda	-9.87156
▁hikâye	-9.87256
▁bölümde	-9.87286
▁görülmektedir	-9.87291
▁denilen	-9.87331
▁şampiyonluğu	-9.87331
▁britanya	-9.87385
▁gören	-9.87479
▁sebebi	-9.87505
▁tren	-9.8755
▁sayılı	-9.87691
▁gök	-9.87721
▁ilişkin	-9.87739
▁gitar	-9.87755
▁adalet	-9.87773
▁test	-9.87779
▁kapsamında	-9.8779
▁hafif	-9.87802
chi	-9.87826
ers	-9.87856
-18	-9.87897
▁birlikleri	-9.87989
▁hat	-9.88009
▁boy	-9.88038
▁çek	-9.88132
▁bağlantı	-9.88146
­	-9.882
▁har	-9.8829
▁dergisi	-9.88329
maz	-9.88385
▁değeri	-9.88473
▁şekil	-9.88634
▁yanına	-9.88721
▁yola	-9.88845
▁george	-9.88862
▁gerektiğini	-9.88923
▁ders	-9.8896
▁hız	-9.89144
▁isyan	-9.89177
▁hitler	-9.89269
▁hanım	-9.89343
▁esir	-9.89419
▁hacı	-9.89432
00	-9.89485
0	-9.89535
▁toplamda	-9.89551
smail	-9.8956
90	-9.89571
â	-9.89663
spanyol	-9.897
▁po	-9.89711
▁ettiler	-9.89734
▁fc	-9.8977
▁yalnız	-9.89884
▁kod	-9.89916
lanması	-9.89942
▁toplumsal	-9.89963
▁mavi	-9.89996
▁yaşlı	-9.90012
▁yaşanan	-9.90056
▁kanun	-9.9009
▁savaşın	-9.90181
▁ürün	-9.90222
▁sezonda	-9.90263
▁onlara	-9.90449
▁güven	-9.9047
▁geçici	-9.90486
▁gelmiş	-9.90537
▁örgüt	-9.90537
mp	-9.90543
▁dar	-9.90565
▁asfalt	-9.90573
2'	-9.90689
▁kullanım	-9.90715
▁st	-9.90921
▁charles	-9.90994
▁bakımından	-9.90998
▁tipi	-9.91006
▁yanlış	-9.91013
bit	-9.91055
▁william	-9.91076
▁bak	-9.91087
▁kır	-9.91145
▁kazan	-9.912
▁kullanıcı	-9.91207
▁ödülünü	-9.91285
rak	-9.91288
▁yurt	-9.91291
▁olaylar	-9.91313
▁kimyasal	-9.91334
▁modeli	-9.91335
ros	-9.91347
▁karısı	-9.91378
▁sonuna	-9.9139
▁isteyen	-9.91399
▁katıldığı	-9.91413
▁komitesi	-9.91427
▁çevresinde	-9.91518
▁6.	-9.91572
lat	-9.91607
ünü	-9.91674
▁sıvı	-9.91712
sch	-9.91715
mez	-9.91743
▁japon	-9.91777
▁kaza	-9.91778
em	-9.91846
▁yardımcısı	-9.91857
▁gelişmiş	-9.91894
▁beşinci	-9.91905
▁girmiştir	-9.91935
sıyla	-9.91997
▁belirtti	-9.92009
▁ressam	-9.92245
har	-9.92253
hu	-9.92258
▁olmakla	-9.92366
▁kullanılarak	-9.92501
que	-9.92542
▁olumlu	-9.92586
▁başlamış	-9.92706
▁çekildi	-9.9284
▁çıkardı	-9.92937
rlanda	-9.92967
ez	-9.92972
▁satış	-9.93078
▁gürcistan	-9.93138
▁2016'	-9.93177
▁bit	-9.93209
siyle	-9.93217
▁maça	-9.93219
▁kurumu	-9.93227
▁fransızca	-9.9323
bur	-9.93248
▁işi	-9.93255
▁google	-9.93261
▁kullanıldı	-9.9328
▁cor	-9.93299
yordu	-9.93317
▁vb	-9.93321
▁2018	-9.93406
▁oda	-9.93415
▁kuş	-9.93427
nes	-9.93434
sinden	-9.9346
ff	-9.93554
ali	-9.93651
▁petrol	-9.93781
▁bol	-9.9381
▁hüküm	-9.93857
▁vermek	-9.93968
▁1970'	-9.94005
▁basın	-9.94081
▁yapılması	-9.94112
▁katolik	-9.94136
▁ruh	-9.94314
ft	-9.94376
▁prens	-9.944
io	-9.9448
▁tiyatrosu	-9.94494
mann	-9.94581
layarak	-9.94678
▁göl	-9.94706
shi	-9.94759
▁imzaladı	-9.9483
▁desteği	-9.94836
▁ederler	-9.9488
▁kalesi	-9.94916
ban	-9.95002
▁başlandı	-9.95002
▁sürede	-9.95036
▁ligde	-9.95039
▁hristiyan	-9.95044
▁ağaç	-9.95055
by	-9.95089
▁yayımlanan	-9.95119
▁bıraktı	-9.95123
lak	-9.95218
▁iv	-9.95344
▁kalır	-9.95366
tal	-9.95382
ian	-9.95616
▁buz	-9.9566
▁aracı	-9.95754
▁amaçlı	-9.95768
▁konuşma	-9.95807
▁etrafında	-9.95826
▁cinsel	-9.95856
▁klip	-9.95898
▁jean	-9.95932
▁özgün	-9.95969
▁demokratik	-9.95995
▁almaya	-9.96002
▁cephesi	-9.96014
▁federasyonu	-9.9609
▁istedi	-9.96091
▁ailesinin	-9.96128
▁çıkmış	-9.96147
▁öğretmen	-9.9615
▁hasta	-9.96367
▁fizik	-9.96385
lanmıştır	-9.96442
rit	-9.96443
kategori	-9.96446
▁60	-9.96486
▁sürdürdü	-9.96487
▁işlemi	-9.96493
gil	-9.96509
▁kasaba	-9.96519
▁don	-9.96539
sta	-9.96595
▁fotoğraf	-9.96617
▁merkezine	-9.96675
▁başbakan	-9.96688
muş	-9.96694
laşma	-9.96698
vin	-9.96796
▁eserler	-9.96836
▁kanalizasyon	-9.96908
kin	-9.96931
▁kütle	-9.96941
▁anayasa	-9.96943
▁latin	-9.97006
▁sinir	-9.97027
▁şehrinde	-9.97115
rus	-9.97172
gerçekleştirilen	-9.97207
▁tehdit	-9.97319
▁yorum	-9.97323
ül	-9.97338
▁dna	-9.97358
▁kullanır	-9.97365
yeni	-9.97373
tro	-9.97424
▁yapıldığı	-9.97436
▁türlü	-9.9746
▁vermektedir	-9.97472
▁gazi	-9.97486
ct	-9.97521
▁rolü	-9.97572
if	-9.97579
▁görüş	-9.97716
▁boyu	-9.97771
▁1980	-9.9791
▁belge	-9.97913
▁aylarında	-9.97932
▁dava	-9.98009
▁zafer	-9.98041
▁olacaktır	-9.98085
▁kıyı	-9.98109
▁arazi	-9.9812
con	-9.98161
we	-9.98186
lay	-9.98187
lendi	-9.98216
▁yönünde	-9.98228
16	-9.98332
ion	-9.98347
▁miktarda	-9.98366
▁kanalı	-9.98385
а	-9.98403
ladı	-9.98461
cılık	-9.98468
ju	-9.9861
▁1980'	-9.98643
▁boz	-9.98683
mparator	-9.98697
▁bay	-9.98733
▁oynayan	-9.98734
▁aşk	-9.98769
ll	-9.98836
▁kırım	-9.98844
▁renkli	-9.98883
▁asist	-9.98902
▁sistemleri	-9.98925
jo	-9.98928
▁kimi	-9.98962
▁çıktığı	-9.99021
▁devrimi	-9.99036
▁tepe	-9.99052
▁kaydetti	-9.99073
▁akım	-9.99102
▁senesinde	-9.99149
▁doğusunda	-9.99198
▁müdürlüğü	-9.99243
▁ulaş	-9.99283
▁düz	-9.99348
▁besteci	-9.99375
▁ihtiyaç	-9.99394
wa	-9.99571
▁içi	-9.99572
▁kart	-9.99595
▁1989	-9.99674
▁başlangıçta	-9.9968
▁gazetesi	-9.99689
▁du	-9.9975
berg	-9.9978
▁gelenek	-9.9979
▁çağdaş	-9.99858
yer	-9.99862
tz	-9.99875
ski	-9.99957
ris	-9.99977
15	-10.0009
▁ülkeler	-10.0012
dil	-10.0015
▁takımında	-10.0018
▁dokuz	-10.0018
▁adım	-10.0019
17	-10.002
▁gençlik	-10.0021
▁cevap	-10.0032
▁hızı	-10.0036
▁aziz	-10.0036
▁2006'	-10.0041
▁eyalet	-10.0046
▁yöntem	-10.0047
▁valisi	-10.0051
▁başarısı	-10.0055
▁trabzon	-10.0056
▁koyu	-10.0058
▁kalp	-10.0069
▁batısında	-10.007
▁bulgaristan	-10.0072
ılır	-10.0079
19	-10.0086
▁birimi	-10.0087
▁yukarı	-10.0091
▁başladığı	-10.0103
▁açılan	-10.0105
tin	-10.0105
▁amatör	-10.0107
▁hep	-10.0111
▁tri	-10.0112
cık	-10.0116
lığını	-10.0118
▁selçuklu	-10.012
78	-10.0123
▁birlik	-10.0128
▁binası	-10.0131
▁serisi	-10.0134
99	-10.0138
▁usta	-10.0154
ang	-10.016
ab	-10.0164
▁ürünleri	-10.0166
▁eleme	-10.0171
▁görür	-10.0176
▁yılındaki	-10.0179
▁gösteri	-10.018
▁kay	-10.0181
▁bitirdi	-10.0184
70	-10.0186
▁hesap	-10.0191
çu	-10.0194
▁ahmed	-10.0199
▁gir	-10.0201
▁yaptıkları	-10.0202
yse	-10.0203
▁gelişme	-10.0207
▁çoğunluğu	-10.0208
▁yumurta	-10.0209
_	-10.0212
▁denizi	-10.0217
▁geliştirme	-10.0219
▁hayatta	-10.0223
▁işçi	-10.0225
▁kon	-10.0226
▁verme	-10.0226
▁kelime	-10.0229
▁ailenin	-10.0229
▁adası	-10.0231
bat	-10.0237
▁1990'	-10.0241
cü	-10.0243
▁ölümü	-10.0243
▁manyetik	-10.0244
▁car	-10.0244
kat	-10.0245
▁başarısız	-10.0247
cy	-10.0252
▁brezilya	-10.0255
▁çocukları	-10.0257
▁ac	-10.0257
▁emekli	-10.0259
▁seyahat	-10.0264
▁gösterdiği	-10.0266
86	-10.0269
cilik	-10.0272
▁not	-10.0275
▁önde	-10.028
▁esnasında	-10.028
▁hakim	-10.0287
▁belçika	-10.0289
▁sam	-10.0289
▁golünü	-10.0296
▁32	-10.0297
▁liman	-10.0311
▁gu	-10.0312
▁tarzı	-10.0317
▁turizm	-10.0317
▁masa	-10.0321
▁görevine	-10.0321
▁yöntemi	-10.0323
▁albümde	-10.0327
▁vergi	-10.0329
▁am	-10.0331
lılar	-10.0334
▁solo	-10.0336
▁adlandırılır	-10.0339
▁yirmi	-10.0341
▁gönderildi	-10.0347
>'<	-10.0352
13	-10.0356
▁ayrılır	-10.0359
▁asıllı	-10.0362
▁komutanlığı	-10.037
luğu	-10.0372
▁gruba	-10.0383
▁nüfusun	-10.0398
sar	-10.0399
▁gemisi	-10.0414
▁hazırlık	-10.0415
▁tel	-10.042
▁benzeri	-10.0422
▁erkekler	-10.0427
▁listesi	-10.0428
▁alternatif	-10.0429
kal	-10.0432
▁sürümü	-10.0433
▁duvar	-10.0444
▁mağlup	-10.045
bay	-10.0455
▁fatih	-10.0459
▁performansı	-10.046
▁kuruluş	-10.0465
ius	-10.0468
▁bulunması	-10.0474
▁alınmıştır	-10.0474
ysa	-10.0475
▁ordusunun	-10.0481
▁karakteri	-10.0489
▁attığı	-10.0492
▁tepki	-10.0499
▁önüne	-10.0504
▁yazılmış	-10.0512
▁henry	-10.0513
▁düştü	-10.0519
mal	-10.0521
▁hanedanı	-10.0524
▁yazılı	-10.0527
▁acı	-10.0541
&	-10.0543
▁öncesinde	-10.0546
bil	-10.055
▁sha	-10.055
nan	-10.0551
▁taşındı	-10.0553
▁sarayı	-10.0562
▁milletler	-10.0563
suz	-10.0571
▁içerisindedir	-10.0573
▁nükleer	-10.0576
gel	-10.0576
▁plak	-10.0577
▁olayı	-10.0584
▁sorumlu	-10.0586
▁richard	-10.0586
▁ala	-10.0589
▁°	-10.0594
▁köprü	-10.06
▁asit	-10.0603
▁meslek	-10.0604
▁ayak	-10.0607
▁zamanlar	-10.061
▁tom	-10.0614
mişti	-10.0622
▁kraliyet	-10.0623
▁ötürü	-10.0624
asyon	-10.0632
▁kurucu	-10.0634
ard	-10.0638
▁dijital	-10.065
tt	-10.0657
▁pat	-10.066
▁you	-10.067
lenme	-10.0671
▁şimdi	-10.0681
▁şampiyonlar	-10.0681
zu	-10.0687
▁paralel	-10.0688
▁dayalıdır	-10.0691
makta	-10.0696
dor	-10.0698
iş	-10.0698
ecektir	-10.07
▁piyade	-10.0709
▁kurban	-10.071
▁tra	-10.0714
uk	-10.0718
▁kamera	-10.0718
▁oluşturduğu	-10.0719
ıyor	-10.0724
▁vefat	-10.0725
▁altındaki	-10.0726
▁ekran	-10.0739
▁dağları	-10.074
▁takımlar	-10.0743
▁geçirdiği	-10.0743
▁vakfı	-10.0751
▁edildiği	-10.0756
▁mimar	-10.0761
▁numaraya	-10.0763
▁mimari	-10.0764
▁kurucusu	-10.0766
▁doğa	-10.0768
▁imparator	-10.0768
kov	-10.0769
bra	-10.0769
▁çeşit	-10.0772
▁etkin	-10.0773
▁sun	-10.0779
▁olmadan	-10.0783
▁girer	-10.0786
▁muharebe	-10.0791
▁uygulaması	-10.0792
▁kopya	-10.0793
`	-10.08
ps	-10.0802
▁mahalle	-10.0802
▁özgür	-10.0802
▁7.	-10.0806
▁martin	-10.0822
▁deri	-10.0825
▁sırasıyla	-10.0826
▁görme	-10.0829
▁süresi	-10.083
▁müdürü	-10.083
om	-10.0832
▁hayvancılığa	-10.0843
dağ	-10.0844
sından	-10.0845
▁şunlardır	-10.0845
95	-10.0845
▁talep	-10.0847
▁2019	-10.0851
aj	-10.0852
▁nesil	-10.0853
dr	-10.0857
76	-10.0858
▁ikili	-10.0863
▁çözüm	-10.0865
▁iline	-10.0866
▁murat	-10.088
▁şehirde	-10.088
▁topluluğu	-10.088
▁kurtuluş	-10.0894
▁sahil	-10.0899
▁pay	-10.09
▁birer	-10.09
▁viyana	-10.0903
45	-10.0906
▁kupa	-10.0916
▁kültürü	-10.0921
▁araba	-10.0927
▁ulaşım	-10.0934
▁devletin	-10.0935
▁şeker	-10.0944
▁dergi	-10.0958
▁olmaktadır	-10.0967
▁kanunu	-10.097
▁olsun	-10.0974
▁kurum	-10.0975
▁öte	-10.0976
▁versiyonu	-10.098
▁birden	-10.0983
▁fikir	-10.0986
▁seçimlerinde	-10.0987
▁geçerek	-10.0994
▁açıklama	-10.0996
▁kendilerine	-10.1002
▁karşılığında	-10.1004
mız	-10.1008
▁mahkemesi	-10.1008
tek	-10.1014
24	-10.1019
▁ederken	-10.102
car	-10.1022
▁vokal	-10.1024
▁liste	-10.1033
▁yara	-10.1034
▁profesör	-10.1042
▁meyve	-10.1055
▁kaldığı	-10.1068
š	-10.1073
▁tayin	-10.1078
▁konya	-10.1086
las	-10.1088
á	-10.1097
▁sivas	-10.11
▁vali	-10.1101
▁maçın	-10.1102
ment	-10.1103
▁ondan	-10.1105
▁çay	-10.1107
▁acentesi	-10.1107
▁katılmıştır	-10.111
▁los	-10.111
▁durumlarda	-10.1111
ras	-10.1113
▁gelecek	-10.1115
▁çalışmalarına	-10.1116
▁kariyerine	-10.1121
▁katılma	-10.1123
▁işletim	-10.1124
▁meksika	-10.1124
▁kütüphane	-10.1129
▁1987	-10.113
▁tank	-10.1131
▁portekiz	-10.1131
▁1960'	-10.1134
▁adayı	-10.1139
▁kurduğu	-10.1141
eceği	-10.1147
87	-10.1148
▁romanya	-10.1151
75	-10.1172
▁kudüs	-10.1181
%	-10.1182
ä	-10.1183
▁üstünde	-10.1184
▁norveç	-10.119
▁akademi	-10.1191
28	-10.1192
▁analiz	-10.1195
▁gerçekleşen	-10.1198
▁yayınlanmıştır	-10.1198
▁yarış	-10.1203
▁del	-10.1207
▁eşlik	-10.1214
▁kare	-10.1226
▁prof	-10.1229
▁yangın	-10.123
lidir	-10.1241
▁arapça	-10.1244
▁euro	-10.1246
bin	-10.1248
▁kısmında	-10.1251
▁danimarka	-10.1254
▁müze	-10.1254
▁mümkündür	-10.1254
▁tarafında	-10.1256
▁türkmen	-10.1265
▁1986	-10.1267
▁sınıfı	-10.127
▁birim	-10.1272
büyük	-10.1273
▁hattı	-10.1282
▁yarısında	-10.1288
▁evlilik	-10.129
gon	-10.1292
▁tarihsel	-10.1294
▁örgütü	-10.1295
ks	-10.1298
stan	-10.13
▁adana	-10.1303
▁ilişkiler	-10.1307
68	-10.1316
▁parlamento	-10.1317
▁city	-10.1319
▁grand	-10.1321
pp	-10.1331
dik	-10.1337
▁maruz	-10.1339
▁şam	-10.134
▁taşı	-10.1342
şan	-10.1342
▁tak	-10.1342
▁macaristan	-10.1345
▁galibiyet	-10.1347
▁dersleri	-10.1348
ılmış	-10.1351
▁direktör	-10.1353
▁başkent	-10.1358
▁devletler	-10.1366
rat	-10.1367
acağı	-10.1374
▁adaları	-10.1375
▁açıklandı	-10.1381
▁1988	-10.1384
▁dönen	-10.1384
▁dalında	-10.1386
▁olmasını	-10.1393
▁dolar	-10.1394
lon	-10.1394
▁sahipliği	-10.1403
▁frank	-10.1403
▁demiryolu	-10.1406
14	-10.1412
▁özgü	-10.1413
res	-10.1416
▁kullanma	-10.1417
▁1984	-10.1429
▁kurt	-10.143
nik	-10.143
21	-10.1432
▁sayfa	-10.1432
▁dolu	-10.1438
▁siyaset	-10.144
▁olmaya	-10.1442
▁geçmektedir	-10.1445
▁[	-10.1451
par	-10.1459
ıl	-10.146
▁gördüğü	-10.1464
ama	-10.1464
▁kenti	-10.147
▁patlama	-10.1471
ac	-10.1471
▁evinde	-10.1475
▁aşık	-10.1485
▁erzurum	-10.1487
▁fikri	-10.1489
tr	-10.1493
▁salonu	-10.1496
lanarak	-10.1496
mus	-10.1499
▁açıldı	-10.1507
yama	-10.1508
▁mahkûm	-10.1509
▁mezar	-10.1511
bal	-10.1517
▁üstün	-10.1518
0.000	-10.1522
▁sap	-10.1522
mis	-10.1523
27	-10.1525
▁derecede	-10.1532
mışlardır	-10.1535
▁öykü	-10.1545
unda	-10.1545
oz	-10.1547
▁ilçesi	-10.1549
ney	-10.155
▁1970	-10.1561
▁halife	-10.1562
şçi	-10.1564
▁sonu	-10.1572
kaya	-10.1574
▁hint	-10.1576
▁yayımladı	-10.1588
▁ömer	-10.1589
▁köşe	-10.1595
▁kanıt	-10.1595
my	-10.1597
▁göstermiştir	-10.1598
▁nba	-10.1598
az	-10.16
▁üstlendi	-10.1606
▁bağlıdır	-10.1607
▁şeyh	-10.1609
lim	-10.1618
▁tanesi	-10.1618
una	-10.1624
▁kullanılması	-10.1633
▁milyar	-10.1633
▁araştırmalar	-10.1633
▁arasına	-10.1634
▁louis	-10.1636
mik	-10.164
▁yaşar	-10.1642
▁edirne	-10.1649
▁cephe	-10.165
▁döner	-10.1658
▁yakınlarında	-10.1658
▁gri	-10.1659
▁unvanını	-10.1662
▁hayatına	-10.1664
gü	-10.1666
▁seçilen	-10.167
▁anlamı	-10.1675
▁mc	-10.1675
▁tarihinin	-10.1679
▁arama	-10.1683
▁90	-10.1686
▁dev	-10.1687
▁sezonunun	-10.1695
▁seçilmiştir	-10.1699
dığını	-10.1701
▁kapı	-10.1703
zen	-10.1703
mü	-10.1704
▁kendilerini	-10.1707
▁eğitimini	-10.1708
+	-10.1711
leşme	-10.1719
|	-10.172
▁akademik	-10.1721
▁bulur	-10.1725
▁belirgin	-10.1726
▁uydu	-10.1731
▁gıda	-10.1737
▁malzeme	-10.1739
▁balık	-10.1745
▁konuk	-10.1745
gün	-10.1745
▁sınırlı	-10.1747
▁jack	-10.1747
▁dönemlerde	-10.1748
ktedir	-10.1761
▁tipik	-10.1761
▁federal	-10.1767
▁açıdan	-10.1769
▁kum	-10.1769
▁taraf	-10.1775
▁istediği	-10.1775
▁bomba	-10.1776
▁atan	-10.1783
▁sorun	-10.1784
▁şarkıyı	-10.1789
örneğin	-10.179
▁bel	-10.1792
▁ju	-10.1796
▁arkadaşları	-10.1808
▁uçuş	-10.182
▁18.	-10.1821
▁insanın	-10.1827
▁ili	-10.1839
▁çalışmalarını	-10.1839
▁1985	-10.184
▁mahkeme	-10.1843
▁merkezinde	-10.1845
müş	-10.1846
▁2005'	-10.1846
▁world	-10.1847
▁angeles	-10.1847
▁halkının	-10.1851
▁rum	-10.1857
▁alanları	-10.1862
▁boya	-10.1867
▁festival	-10.1868
▁meydan	-10.1872
▁değildi	-10.1875
▁1982	-10.1878
▁kalın	-10.1879
▁romanı	-10.188
▁kazandığı	-10.1888
▁jo	-10.1888
fo	-10.1891
▁katkıda	-10.1894
▁büyü	-10.1896
▁şansı	-10.19
▁sadrazam	-10.1911
▁senaryo	-10.1915
lenmiştir	-10.1918
▁değişiklik	-10.1919
che	-10.1927
▁öğrencisi	-10.193
▁bölgesel	-10.1931
▁doktora	-10.1935
▁buffy	-10.1935
▁etnik	-10.1936
▁müzisyen	-10.1938
sti	-10.1939
▁yolcu	-10.1941
▁özellik	-10.1943
ven	-10.1945
▁kardeş	-10.1946
▁•	-10.1947
▁oyuna	-10.1948
▁ege	-10.1952
▁tarihte	-10.1952
▁yusuf	-10.1953
zer	-10.1973
▁hastalık	-10.1982
▁hepsi	-10.1984
▁onlar	-10.1986
▁gösterildi	-10.1986
▁ser	-10.1991
eski	-10.1998
▁komşu	-10.2001
▁kısım	-10.2002
▁takıma	-10.2003
▁bilimler	-10.2005
▁sch	-10.2005
▁bi	-10.2007
▁reklam	-10.2009
▁buradan	-10.2011
▁gruplar	-10.2012
lis	-10.2013
▁artan	-10.2018
▁kere	-10.2027
▁pre	-10.2028
▁eskiden	-10.2035
▁korku	-10.2035
▁adının	-10.2036
▁düzey	-10.2036
▁amaç	-10.2043
▁kürt	-10.205
▁ölü	-10.2054
▁albümünü	-10.2054
▁protein	-10.2056
▁yasası	-10.2072
▁kaliforniya	-10.2072
▁getiren	-10.2073
▁hoca	-10.2081
▁mil	-10.2084
tus	-10.2084
▁ortasında	-10.2086
▁sar	-10.2093
▁turnuva	-10.2097
▁bünyesinde	-10.2097
▁çelebi	-10.2105
59	-10.2106
tör	-10.2106
▁grafik	-10.2117
▁teşvik	-10.2118
▁konuda	-10.212
▁par	-10.2124
▁disk	-10.2125
▁yazılan	-10.2125
▁türleri	-10.2125
▁sözleri	-10.2131
▁kalmış	-10.2131
▁birleşmiş	-10.2135
ril	-10.2139
▁katkı	-10.214
▁çıkma	-10.214
▁yükselen	-10.2142
▁madrid	-10.2142
▁değişken	-10.2143
▁yerinde	-10.2153
▁otomobil	-10.2155
bn	-10.216
▁eve	-10.2162
oloji	-10.2165
▁yardımıyla	-10.2166
▁grubunun	-10.217
67	-10.2171
▁dakikada	-10.2174
▁uç	-10.2177
36	-10.2179
05	-10.2189
▁atom	-10.2192
▁yargı	-10.2193
▁dayalı	-10.2195
lamıştır	-10.2199
▁yılların	-10.2201
▁bayram	-10.2204
▁edecek	-10.2209
sis	-10.2212
mı	-10.2216
ds	-10.2216
▁ülkelerde	-10.2217
süz	-10.2219
▁ediyor	-10.2221
iyet	-10.2226
▁taşır	-10.2226
▁siyasal	-10.2229
96	-10.223
masını	-10.2235
▁geçerli	-10.224
▁oluşturulan	-10.2243
▁onunla	-10.2245
▁dedi	-10.2246
hat	-10.2246
▁black	-10.2246
üs	-10.2248
▁buraya	-10.2249
▁my	-10.2259
diğini	-10.2262
▁olanak	-10.2266
▁alıp	-10.2271
▁hayal	-10.2272
▁sonraları	-10.2273
▁donanması	-10.2275
▁kentin	-10.2276
▁hayvancılık	-10.2277
▁edebiyatı	-10.228
с	-10.2281
tel	-10.2284
▁çelik	-10.2285
▁okuma	-10.2289
▁sıfır	-10.2289
▁35	-10.2293
bas	-10.2296
69	-10.2296
▁düşen	-10.2303
▁sisteminin	-10.2304
▁anlatır	-10.2307
ble	-10.2312
48	-10.2316
▁maden	-10.2318
zade	-10.2318
ıyordu	-10.232
▁süreci	-10.2325
▁yerlerde	-10.2325
▁teorisi	-10.2328
▁toplama	-10.2336
kle	-10.2336
▁toprakları	-10.2337
▁şarkıları	-10.2339
▁kılıç	-10.2341
▁komedi	-10.2342
lerdi	-10.2349
▁lo	-10.2359
▁thomas	-10.2361
▁records	-10.2361
▁görevinden	-10.2367
▁insanları	-10.2373
▁planı	-10.2381
▁ettiğini	-10.2382
?"	-10.2386
▁hayata	-10.2393
▁kadro	-10.2394
▁yak	-10.2395
▁köle	-10.2396
▁gerçekleştiril	-10.2399
▁giyen	-10.2401
▁selim	-10.2408
▁"(	-10.241
▁oyuncular	-10.2415
▁sanatçısı	-10.2415
▁açı	-10.2417
▁vücut	-10.2424
88	-10.2427
▁komutasındaki	-10.2428
▁gazeteci	-10.2432
ice	-10.2433
▁politika	-10.2434
ent	-10.2441
▁sabah	-10.2443
▁+	-10.2443
bet	-10.2445
▁sistemin	-10.2446
▁suikast	-10.2447
▁harita	-10.2449
▁uzanan	-10.2452
▁karanlık	-10.2455
▁işbirliği	-10.2455
▁kavramı	-10.2458
lenmesi	-10.2459
▁hariç	-10.2463
▁1960	-10.2463
▁jackson	-10.2464
▁alması	-10.2465
hal	-10.2474
▁marka	-10.2474
▁aktör	-10.2478
val	-10.248
▁olumsuz	-10.2481
▁görsel	-10.2481
dis	-10.2485
▁gönderdi	-10.2489
▁beyin	-10.2491
▁seçimi	-10.2492
abilen	-10.2497
lıdır	-10.2499
▁başvuru	-10.2508
▁tarihlerinde	-10.2511
▁marmara	-10.2513
▁love	-10.2514
▁karasal	-10.2514
▁1983	-10.2529
▁makine	-10.2532
ılan	-10.2535
▁yazmıştır	-10.2546
▁olimpiyat	-10.2553
▁başkanlık	-10.2556
▁yasak	-10.2558
▁rengi	-10.2559
▁erdi	-10.2565
▁savaşta	-10.2566
38	-10.2567
▁pilot	-10.2569
▁unvanı	-10.2569
▁işleme	-10.2574
▁muhtemelen	-10.2576
▁tasarımı	-10.2576
mat	-10.2579
▁sıklıkla	-10.2579
▁kayseri	-10.2581
85	-10.2585
▁duyurdu	-10.259
▁kolu	-10.2593
▁varlığı	-10.2598
▁sim	-10.2602
▁kor	-10.2603
muştur	-10.2605
▁1945	-10.2608
▁tabanlı	-10.2608
▁cha	-10.2615
▁otomatik	-10.2616
▁yarım	-10.2618
▁seferi	-10.2622
▁yüzde	-10.2624
mm	-10.2624
▁mer	-10.2631
▁chi	-10.2632
▁çalıştığı	-10.2634
26	-10.2635
lüğü	-10.2635
▁ermenistan	-10.2636
▁gayet	-10.2637
▁bakış	-10.2639
▁hata	-10.2644
▁uyar	-10.2645
sek	-10.2649
▁şampiyonluk	-10.2651
▁anlaşması	-10.2657
▁köydür	-10.2658
af	-10.2662
▁maria	-10.2662
▁vererek	-10.2671
▁ters	-10.2672
syon	-10.2672
▁ekip	-10.2683
▁bölgedeki	-10.2685
▁kısmını	-10.2685
▁etkileri	-10.2701
▁saygı	-10.2703
▁tartışma	-10.2704
▁matematik	-10.2704
▁parlak	-10.2705
▁edward	-10.2707
▁çeyrek	-10.2707
lem	-10.2709
şar	-10.2711
▁kullandı	-10.2712
▁antalya	-10.2714
▁yayla	-10.2717
▁yaklaşım	-10.2717
▁1974	-10.2728
▁kitabın	-10.2732
▁doğrultusunda	-10.2733
▁sonuçları	-10.2733
ledi	-10.2733
▁zemin	-10.2735
▁miktarı	-10.2738
33	-10.2742
39	-10.2743
▁piyano	-10.2745
▁terim	-10.2748
▁olacağını	-10.2748
▁star	-10.2749
▁kimlik	-10.2752
ağa	-10.2752
rin	-10.2752
▁herkes	-10.2755
ms	-10.2755
▁anılan	-10.2758
pınar	-10.2758
▁sözü	-10.2759
▁türkler	-10.276
▁süt	-10.276
▁dişi	-10.2761
▁ilişkileri	-10.2764
▁sscb	-10.2765
▁emin	-10.2766
▁baz	-10.2768
amaz	-10.277
▁şarkılar	-10.277
▁ilişkisi	-10.2774
cia	-10.278
▁sağlamıştır	-10.2782
▁taarruz	-10.2784
▁alın	-10.2784
▁terimi	-10.2785
leyici	-10.2786
▁görülmüştür	-10.2786
iyor	-10.2786
▁sıkı	-10.2788
▁mikro	-10.2791
▁80	-10.2793
▁olayları	-10.2795
▁orkestra	-10.2796
▁çeviri	-10.2799
▁edilerek	-10.2806
▁gürcü	-10.2809
▁değişim	-10.2813
▁alınarak	-10.2813
sim	-10.2817
cumhurbaşkanlığı	-10.2818
hl	-10.2819
▁show	-10.282
▁stadyumu	-10.282
▁bağımsızlık	-10.2823
mos	-10.2823
▁padişah	-10.2826
▁kimya	-10.2828
▁şekli	-10.2837
▁çeken	-10.2838
▁koç	-10.2839
tis	-10.2842
▁kazı	-10.2843
▁wa	-10.2844
▁hasar	-10.2848
gun	-10.2849
ılması	-10.285
dra	-10.2851
▁kuantum	-10.2851
▁hakkındaki	-10.2852
▁kaynakları	-10.2853
▁is	-10.2854
▁isteği	-10.2859
bor	-10.286
mekte	-10.2861
▁sözcüğü	-10.2865
▁mesafe	-10.287
▁musa	-10.2873
▁hali	-10.2873
▁hot	-10.2874
star	-10.2875
▁hi	-10.2877
▁kısmen	-10.2879
▁değerli	-10.2884
▁sitesi	-10.2884
ğa	-10.2884
35	-10.2885
ud	-10.2885
ınca	-10.2886
ydu	-10.2887
▁getirir	-10.2889
▁sayede	-10.2892
ince	-10.2892
mparatoru	-10.2898
▁almanca	-10.2904
65	-10.2905
▁1981	-10.2908
▁allah	-10.2912
▁kilometre	-10.2919
▁makedonya	-10.2922
▁sur	-10.2924
▁bulgar	-10.2925
ize	-10.2928
▁onur	-10.2928
▁küre	-10.2929
▁ayar	-10.293
▁dere	-10.2932
acaktır	-10.2935
▁üyeliği	-10.2936
▁yapılacak	-10.2936
▁fonksiyonu	-10.2941
▁500	-10.2942
ünün	-10.2948
▁takımda	-10.2949
oğulları	-10.295
ling	-10.2953
▁korumak	-10.2954
▁sesi	-10.2954
qua	-10.296
mam	-10.2961
▁kalkınma	-10.2965
▁frekans	-10.2965
▁birinin	-10.2967
▁zaten	-10.2972
▁uygulamaları	-10.2975
▁mühendisliği	-10.2976
öz	-10.2982
top	-10.2989
▁ila	-10.2991
▁olmuştu	-10.2991
▁düşünülmektedir	-10.2992
▁bankası	-10.2995
▁tanım	-10.3003
▁balkan	-10.3005
71	-10.3009
▁temsilcisi	-10.3013
▁abdullah	-10.3013
▁temiz	-10.3018
eceğini	-10.3021
▁evli	-10.3021
ses	-10.3025
▁1973	-10.3031
▁yenerek	-10.3033
▁bulmak	-10.3037
▁2017'	-10.3037
▁tanınmış	-10.3039
daha	-10.304
▁all	-10.304
▁tanıştı	-10.3042
97	-10.3042
▁posta	-10.3046
▁kurulması	-10.3047
▁gönüllü	-10.3052
▁kitabında	-10.3053
▁sanatlar	-10.3054
▁kg	-10.3055
▁tanınan	-10.3066
▁kamp	-10.3067
wi	-10.3069
lerdeki	-10.307
eti	-10.3072
▁duruma	-10.3073
▁yönettiği	-10.3074
▁turda	-10.3075
▁numaralı	-10.3077
leyen	-10.3082
▁karbon	-10.3084
▁ülkelerin	-10.3091
ıyla	-10.3092
▁9.	-10.3092
41	-10.3092
eg	-10.3094
▁küresel	-10.3094
sidir	-10.3095
▁uzunluğu	-10.3099
▁pil	-10.3099
▁sağlam	-10.3099
▁gereği	-10.3099
▁hazırlanan	-10.3101
▁bölümünü	-10.3101
▁düzen	-10.3102
▁yönetiminde	-10.3105
▁vermiş	-10.3106
▁özellikler	-10.311
31	-10.3111
▁oyunda	-10.3116
▁mark	-10.3121
lor	-10.3125
▁dönme	-10.3126
▁tatlı	-10.3128
▁vektör	-10.3129
▁savaşa	-10.313
gin	-10.3131
▁yüksel	-10.3132
▁satışa	-10.3134
▁nokia	-10.3134
▁oynamıştır	-10.3135
▁şiddet	-10.3136
▁ağırlık	-10.3136
nt	-10.3136
▁dvd	-10.3141
▁antlaşma	-10.3142
▁dışişleri	-10.3147
▁val	-10.315
bek	-10.315
▁lider	-10.315
▁yasal	-10.3151
▁bölgelerde	-10.3154
▁kapısı	-10.3157
sey	-10.3161
▁gür	-10.3167
qui	-10.3176
▁albümleri	-10.3177
▁diş	-10.3184
▁donanım	-10.3185
▁af	-10.3186
ladığı	-10.3187
▁soru	-10.319
55	-10.3194
muz	-10.3195
▁olmasından	-10.3209
▁depo	-10.3211
mas	-10.3212
▁hizmetleri	-10.3214
22	-10.3217
▁yarışmanın	-10.3219
▁devrimci	-10.322
▁sahipti	-10.3225
türkiye	-10.3232
▁yağış	-10.3236
▁görüldü	-10.3238
▁pas	-10.3241
▁boyutlu	-10.3241
▁yaşamaktadır	-10.3242
▁başlanmıştır	-10.3247
masına	-10.3247
▁katılımcı	-10.3248
▁genelinde	-10.3252
▁alanlarda	-10.3258
▁set	-10.3259
▁yay	-10.3259
▁kut	-10.3259
▁numara	-10.3261
▁söylemiştir	-10.3266
▁başladılar	-10.3266
▁1979	-10.3272
isi	-10.3272
iyordu	-10.3274
▁kentinde	-10.328
▁seyirci	-10.3292
▁mali	-10.3293
▁2004'	-10.3295
84	-10.3295
▁algı	-10.3305
nor	-10.331
▁cemiyeti	-10.331
▁kongre	-10.331
▁artış	-10.332
sco	-10.3321
▁kontrolü	-10.3322
32	-10.3326
▁karl	-10.3326
▁ebu	-10.3326
ağı	-10.3331
▁kök	-10.3336
▁tablo	-10.3342
▁bil	-10.3343
04	-10.3344
83	-10.3344
▁parçaları	-10.335
▁10.	-10.3352
▁göreve	-10.336
▁kişilerin	-10.3361
▁bağış	-10.3361
▁kadınların	-10.3362
▁kimse	-10.3364
▁yugoslavya	-10.3366
▁odası	-10.3367
▁arjantin	-10.3368
▁kaptan	-10.3373
▁devrim	-10.3375
▁listesine	-10.3385
▁denge	-10.3387
▁coğrafi	-10.3394
▁yazma	-10.3394
▁kahraman	-10.3395
▁yayım	-10.3399
▁sil	-10.3399
▁düşer	-10.3403
▁gelin	-10.3407
▁demokrat	-10.3407
▁oradan	-10.3412
▁servis	-10.3414
ation	-10.3417
elli	-10.3418
▁paket	-10.342
▁çayı	-10.3424
org	-10.3425
layıcı	-10.3425
▁say	-10.3428
çin	-10.3429
▁yapılar	-10.3432
▁bebek	-10.3434
tak	-10.3437
sy	-10.3449
73	-10.3451
▁büyükşehir	-10.3453
▁dayanan	-10.3456
▁işletme	-10.3459
ky	-10.3464
▁tanı	-10.3465
▁16.	-10.3467
şı	-10.3474
▁kurul	-10.3476
▁değişiklikler	-10.3477
▁kütüphanesi	-10.3482
▁rüzgar	-10.3483
▁çekirdek	-10.3486
▁eserin	-10.3487
23	-10.3497
▁okudu	-10.3499
▁oranda	-10.3499
▁dışındaki	-10.3502
▁başlayarak	-10.3504
▁belgesel	-10.3505
▁tamamı	-10.3508
▁layık	-10.3509
64	-10.3509
▁evine	-10.351
▁partinin	-10.351
▁müdahale	-10.3514
▁millet	-10.3518
▁intihar	-10.3519
▁joseph	-10.3519
▁ton	-10.352
▁güçleri	-10.352
▁rapor	-10.3521
▁nehir	-10.3522
▁başlangıç	-10.3526
▁west	-10.3527
98	-10.3527
▁baskın	-10.3528
▁ikna	-10.353
▁rakibi	-10.3532
▁özerk	-10.3541
▁ölçü	-10.355
▁tbmm	-10.3551
▁oldular	-10.3556
▁daire	-10.3558
▁geriye	-10.356
▁yönetmeni	-10.3563
liler	-10.3566
▁vermeye	-10.357
▁deprem	-10.3573
▁yaşamış	-10.3574
89	-10.3574
▁ölen	-10.3576
▁1968	-10.3582
▁zorunlu	-10.3582
op	-10.3583
▁we	-10.3584
lip	-10.3585
▁yayınları	-10.3586
▁ayrılan	-10.3587
▁kelimesi	-10.3587
74	-10.359
yar	-10.3592
▁buradaki	-10.3593
▁kalıntıları	-10.3593
▁lee	-10.3594
▁milliyetçi	-10.3601
▁madalyası	-10.3602
▁hane	-10.3606
konstantinopolis	-10.3608
los	-10.3609
lardaki	-10.362
▁macar	-10.3628
▁müzikal	-10.3631
bul	-10.3631
▁300	-10.3633
81	-10.3635
▁öğrenciler	-10.3641
one	-10.3641
▁risk	-10.3645
▁deneme	-10.3657
▁gen	-10.3657
▁sorunları	-10.3658
til	-10.3658
tay	-10.3658
▁çekilen	-10.3658
▁sahneye	-10.3659
500	-10.366
ktadır	-10.3666
zan	-10.3667
▁öyle	-10.3667
▁süreç	-10.367
şu	-10.367
acağını	-10.3671
▁askerler	-10.3673
▁gelerek	-10.368
▁organize	-10.3681
▁sürü	-10.3683
▁finlandiya	-10.3683
▁şa	-10.3694
▁askerleri	-10.3699
▁binlerce	-10.3702
▁açıkça	-10.3707
▁sırbistan	-10.3708
ino	-10.371
▁kemer	-10.3714
-2	-10.3716
▁mag	-10.3722
▁latince	-10.3723
▁aşağıda	-10.3723
▁forması	-10.3724
lâ	-10.3724
▁1972	-10.3728
▁red	-10.3728
▁potansiyel	-10.3729
▁yerleşti	-10.3729
▁konum	-10.373
sun	-10.3731
▁bunlara	-10.3736
▁kuşatma	-10.3738
77	-10.3738
for	-10.3739
▁wwe	-10.3739
▁heykel	-10.3745
37	-10.375
▁bunları	-10.3758
▁sir	-10.3759
▁gelip	-10.3768
kra	-10.3768
▁diyarbakır	-10.3769
82	-10.3772
▁çekim	-10.3772
▁sunucu	-10.3776
▁pozitif	-10.3776
▁11.	-10.3778
▁eleştiri	-10.378
01	-10.378
▁şirketin	-10.378
▁cihaz	-10.3788
▁trans	-10.3789
▁1950'	-10.3796
▁hapis	-10.3798
▁finalinde	-10.3803
▁isimler	-10.3807
▁belde	-10.3811
rs	-10.3811
nis	-10.3811
▁carl	-10.3813
▁verimli	-10.3815
▁geldiğinde	-10.3816
▁kullanmak	-10.3825
▁gençler	-10.3835
▁öldürüldü	-10.3839
▁limanı	-10.3841
bb	-10.3841
▁sorunu	-10.3841
▁kristal	-10.3842
▁kuruluşu	-10.385
▁gücünü	-10.385
▁sıradan	-10.3851
▁bakan	-10.3855
▁birbirinden	-10.3855
▁sürgün	-10.3856
▁150	-10.3857
▁bulunmaktaydı	-10.3862
▁arasındadır	-10.3865
▁tanıma	-10.3871
ó	-10.3871
▁dahi	-10.3878
cılar	-10.3879
▁siyasetçi	-10.3881
▁music	-10.3886
▁elektron	-10.3894
▁sat	-10.3894
pro	-10.3899
▁gal	-10.3907
▁askerî	-10.3909
▁kongresi	-10.3912
tti	-10.3912
veya	-10.3913
▁fabrikası	-10.3916
▁düğün	-10.3921
sol	-10.3927
▁aylık	-10.3928
▁bosna	-10.3929
yev	-10.3929
▁yıldırım	-10.3936
▁işe	-10.3937
▁komisyonu	-10.394
▁idari	-10.3943
evi	-10.3949
▁anna	-10.395
▁kafa	-10.3951
ğını	-10.3954
▁olmasıdır	-10.3955
▁1971	-10.3957
▁güncel	-10.3962
92	-10.3966
▁fin	-10.3966
▁teşkilatı	-10.3968
▁köyünde	-10.3968
▁atina	-10.397
▁kaleme	-10.3972
▁real	-10.3974
▁yakıt	-10.3976
▁otel	-10.3978
▁1969	-10.3981
▁başı	-10.3984
▁savaşları	-10.3984
▁satan	-10.399
ford	-10.3991
▁soy	-10.3994
▁mekanik	-10.3996
zar	-10.3997
▁duyu	-10.4003
▁parkı	-10.4007
tas	-10.4011
▁1967	-10.4011
▁biçim	-10.4013
▁eğlence	-10.4015
▁gerçekten	-10.4017
nternet	-10.4017
29	-10.4023
▁olduktan	-10.4025
▁tehlike	-10.4028
▁akıl	-10.4031
▁çanakkale	-10.4032
gal	-10.4037
▁gönderme	-10.4038
▁donanma	-10.4039
av	-10.4042
▁teklifi	-10.4046
▁buğday	-10.4047
▁nar	-10.4048
▁inceleme	-10.405
▁şiddetli	-10.405
▁fen	-10.4054
ska	-10.4055
lerindeki	-10.4056
ış	-10.4058
▁ger	-10.4061
yü	-10.4063
▁13.	-10.4066
▁1975	-10.4072
▁men	-10.4073
▁gezi	-10.4076
▁okyanus	-10.4081
46	-10.4084
tri	-10.4086
▁alınması	-10.4087
mut	-10.4094
▁olacağı	-10.4095
▁1977	-10.4095
ag	-10.4095
▁taşıma	-10.4098
▁güneydoğu	-10.4099
▁belirlenmiştir	-10.41
▁hayvanlar	-10.4102
▁mektup	-10.4105
▁kullanıldığı	-10.4107
▁1944	-10.4108
ste	-10.4111
▁tasvir	-10.4113
cha	-10.4117
▁isimleri	-10.412
▁organizasyon	-10.4121
▁ağırlıklı	-10.4123
ram	-10.4124
▁ortodoks	-10.4126
▁denen	-10.4129
▁rekabet	-10.4129
▁hastalığı	-10.4138
▁benim	-10.4142
▁1-0	-10.4146
▁toplanan	-10.4153
sky	-10.4156
▁gaga	-10.4156
tic	-10.4165
▁live	-10.4172
▁çam	-10.4175
▁kıta	-10.4177
▁karşılıklı	-10.4179
▁dosya	-10.4183
▁tabaka	-10.4184
▁sev	-10.4185
▁besin	-10.4185
dal	-10.4186
▁bulunma	-10.4188
▁yunanca	-10.419
▁basınç	-10.4191
▁yağmur	-10.4194
▁poli	-10.4195
▁blok	-10.4196
▁8.	-10.4197
▁kaydı	-10.4197
66	-10.4201
▁orhan	-10.4201
▁varlığını	-10.4202
dos	-10.4206
▁kraliçe	-10.4208
çık	-10.4209
ası	-10.4213
bert	-10.4215
▁inşaat	-10.4216
kur	-10.422
kâ	-10.4222
▁getirdiği	-10.4222
▁alp	-10.4224
▁angel	-10.4227
▁his	-10.4227
cer	-10.4228
▁bahçe	-10.4231
▁protesto	-10.4233
▁tekniği	-10.4235
paşa	-10.4236
bol	-10.424
ucu	-10.4244
▁coğrafya	-10.4244
▁geliştirilen	-10.4244
▁denk	-10.4246
▁kuvveti	-10.4249
▁etkileşim	-10.4249
▁sırp	-10.4255
▁hidrojen	-10.4257
▁pu	-10.426
ıldı	-10.4261
▁za	-10.4263
▁girdiği	-10.427
▁toplu	-10.4271
▁girişimi	-10.4272
▁çocuklar	-10.4273
▁17.	-10.4278
▁tekli	-10.4278
▁tarihçi	-10.4285
lenerek	-10.4287
▁çıkması	-10.4288
▁1978	-10.4288
▁başlattı	-10.4292
▁sürüldü	-10.4295
cik	-10.4299
62	-10.4304
▁ram	-10.4308
▁fabrika	-10.431
▁koca	-10.4314
▁eyaleti	-10.4318
▁1976	-10.4319
ıcı	-10.432
hisar	-10.4325
▁dağılımı	-10.4325
▁adamları	-10.4325
▁1961	-10.4326
▁suyun	-10.4327
▁tunç	-10.4334
▁ayrılmıştır	-10.4337
▁aş	-10.4339
tsu	-10.4342
47	-10.4344
▁yemekleri	-10.4353
▁resmen	-10.4356
uş	-10.4363
▁ülkeleri	-10.4366
▁harekete	-10.4372
▁değişen	-10.4377
ket	-10.4379
▁1941	-10.4382
1'	-10.4382
▁çalış	-10.4383
▁değin	-10.4383
▁gösterilmiştir	-10.4389
▁şehre	-10.439
▁uygulamalar	-10.4397
▁ikiye	-10.4399
bah	-10.4401
▁çıkarak	-10.4403
▁sorgu	-10.4406
eb	-10.441
▁görülebilir	-10.4411
▁iptal	-10.4411
▁yaşamını	-10.4411
▁gerekçesiyle	-10.4412
▁33	-10.4412
▁getirmiştir	-10.4413
▁aittir	-10.4414
▁tar	-10.4416
▁kurtar	-10.442
and	-10.4424
▁altıncı	-10.4436
key	-10.4436
▁pla	-10.4436
▁ürünler	-10.4436
▁ol	-10.4437
▁sundu	-10.4438
▁sürüm	-10.4439
pel	-10.444
▁beste	-10.4448
▁saldırısı	-10.445
▁ham	-10.4451
▁içeriği	-10.4453
lie	-10.4454
▁direniş	-10.4458
idir	-10.4461
▁2000'	-10.4462
91	-10.4468
▁kökeni	-10.447
▁özgürlük	-10.4473
▁bakır	-10.4476
eddin	-10.448
▁konuş	-10.4484
▁gerilim	-10.4485
▁güreş	-10.4485
gre	-10.4488
▁imparatorluk	-10.4489
94	-10.4491
▁(1	-10.4492
tha	-10.4497
▁işleri	-10.4498
▁ihtiyacı	-10.45
▁çıkardığı	-10.4508
▁demokrasi	-10.4512
▁kurgu	-10.4512
▁ayrılarak	-10.4513
▁çalışmıştır	-10.4514
▁cd	-10.4516
▁hizmeti	-10.4517
▁temas	-10.4521
▁fu	-10.4521
▁görüşü	-10.4525
▁kazanarak	-10.4529
▁tuz	-10.4531
▁yönetmenliğini	-10.4534
yol	-10.4534
▁washington	-10.4535
▁oluşturmaktadır	-10.4536
▁1964	-10.4537
▁erişim	-10.4543
larındaki	-10.4543
▁tarif	-10.4545
lediği	-10.4548
▁başbakanı	-10.4549
▁ilçesinde	-10.4549
▁görünür	-10.4551
▁sinan	-10.4556
sam	-10.4563
▁tapınak	-10.4566
▁gerçekleşti	-10.4568
art	-10.457
▁site	-10.4574
lit	-10.4582
▁gövde	-10.4583
ora	-10.4585
▁birbirlerine	-10.4588
lek	-10.459
▁hay	-10.4591
▁sen	-10.4594
▁yörünge	-10.4594
▁anlatan	-10.46
▁ulaşan	-10.46
07	-10.4602
gor	-10.4603
▁akşam	-10.4606
▁haçlı	-10.4609
burg	-10.461
▁gerçekleştirdi	-10.4611
▁net	-10.4614
▁kolej	-10.4616
54	-10.4616
▁nadir	-10.4617
▁günde	-10.4624
port	-10.4627
▁tabi	-10.4627
cher	-10.4629
▁bırakıldı	-10.463
▁oluşturmak	-10.4631
▁1965	-10.4634
▁sonsuz	-10.4635
▁yunus	-10.4635
▁zamanın	-10.4636
▁filistin	-10.4647
▁dal	-10.4648
ls	-10.4651
▁miktar	-10.4659
▁geçtiği	-10.4661
▁oran	-10.4661
au	-10.4661
▁kanat	-10.4662
▁ifadesi	-10.4663
▁ayaklanma	-10.4671
▁ortam	-10.4671
▁tarihine	-10.4672
▁pers	-10.4677
▁ödeme	-10.4677
mes	-10.4679
line	-10.4679
▁bulunuyordu	-10.4679
▁samsun	-10.4682
▁cem	-10.4683
▁bra	-10.4683
▁bağlantısı	-10.4685
▁topu	-10.4688
▁wi	-10.4689
▁alınır	-10.4694
-3	-10.4697
leyerek	-10.4697
rik	-10.4697
▁yönde	-10.4698
▁yarımadası	-10.4717
▁alay	-10.472
▁çiçek	-10.472
kale	-10.472
▁fer	-10.4721
▁rolünü	-10.4723
row	-10.4724
kili	-10.4724
▁tez	-10.4728
▁alkol	-10.4733
▁sözleşmesi	-10.4735
▁iktidar	-10.4738
▁bağdat	-10.4741
▁terfi	-10.4741
▁yapımcı	-10.4743
▁oğuz	-10.4747
▁uzman	-10.4751
‘	-10.4752
▁şeyi	-10.4754
kla	-10.4755
kte	-10.4757
kta	-10.4758
▁belirtir	-10.4762
▁atarak	-10.4763
▁önceleri	-10.4764
▁ag	-10.4766
▁trabzonspor	-10.4767
▁birini	-10.4767
▁sağlığı	-10.4777
▁70	-10.478
▁süvari	-10.478
▁programında	-10.4781
▁topraklarına	-10.4782
▁aşkın	-10.4786
▁bulun	-10.4787
▁cezası	-10.4789
hil	-10.4791
▁teori	-10.4797
▁stalin	-10.4801
▁hikâyesi	-10.4802
imi	-10.4804
▁suçlu	-10.4805
▁düzeyde	-10.4806
▁bağı	-10.4807
▁kaç	-10.4807
▁kadının	-10.4809
▁kaleci	-10.4818
▁sayılar	-10.482
▁vurgu	-10.4821
ilmiş	-10.4821
▁eylem	-10.4825
▁genetik	-10.4832
▁doğumlu	-10.4832
▁harry	-10.4833
56	-10.4835
▁ağız	-10.4837
▁eşcinsel	-10.4837
▁vadisi	-10.484
▁sonlarına	-10.4842
▁kura	-10.4843
▁yaşta	-10.4857
▁zamanı	-10.4858
▁çatışma	-10.486
▁1966	-10.4864
▁rakip	-10.4864
ilir	-10.4865
ple	-10.4867
▁sanatı	-10.487
▁takımlarından	-10.4872
▁trt	-10.4877
moto	-10.4877
49	-10.4883
▁bölümün	-10.4886
▁diğerleri	-10.4891
▁toplumun	-10.4891
▁yapması	-10.4891
landığı	-10.4895
nas	-10.4898
üm	-10.4899
▁diğeri	-10.4901
▁keşif	-10.4902
▁roket	-10.4902
▁oyunlar	-10.4902
▁katılmış	-10.4906
▁ortalaması	-10.4912
▁gel	-10.4916
▁arkasında	-10.4916
61	-10.4917
▁havalimanı	-10.4918
vis	-10.492
▁zırhlı	-10.492
altı	-10.492
▁os	-10.4924
▁maddi	-10.4925
79	-10.493
ep	-10.4938
▁teknolojisi	-10.4939
▁olursa	-10.494
▁bölgesinin	-10.4941
▁kariyerinin	-10.4941
lığın	-10.4943
▁olimpiyatları	-10.4946
▁önemlidir	-10.4946
▁kurma	-10.4947
▁1920	-10.495
ören	-10.4953
siyon	-10.4955
jen	-10.4955
▁münih	-10.4959
▁savaştan	-10.4963
▁biz	-10.497
▁ilham	-10.4974
▁zamana	-10.4978
ec	-10.498
▁tanımı	-10.498
▁saint	-10.4983
▁yenilgi	-10.4987
▁olmayı	-10.4987
emez	-10.499
▁mühendislik	-10.4992
▁olayların	-10.4993
kel	-10.4994
▁varlık	-10.4995
▁yaşamı	-10.4996
▁olmaması	-10.4996
▁buzul	-10.4999
▁çatı	-10.5014
72	-10.5015
р	-10.5016
▁evde	-10.5016
▁united	-10.5016
▁yön	-10.5018
▁banka	-10.5021
▁faaliyetleri	-10.5026
ville	-10.5026
▁dövüş	-10.5027
ğini	-10.5028
iç	-10.5031
▁hazırladığı	-10.5031
▁görevli	-10.5034
▁1950	-10.5034
▁meşhur	-10.5038
▁dışarı	-10.5041
▁mekan	-10.5042
▁gelmesi	-10.5042
▁annesinin	-10.5048
rem	-10.5057
▁ufak	-10.506
▁mersin	-10.5061
▁ettikleri	-10.5067
avi	-10.5068
▁au	-10.5075
hara	-10.5079
58	-10.5079
▁kurşun	-10.5082
▁yaşındaki	-10.5087
▁anlam	-10.509
ria	-10.5091
name	-10.5092
▁şans	-10.5093
abilecek	-10.5093
▁kayıp	-10.5098
mor	-10.5098
▁sayılabilir	-10.51
mb	-10.51
▁yaşama	-10.5102
▁sistemine	-10.5107
▁konak	-10.511
▁bilgileri	-10.5111
fet	-10.512
▁saç	-10.5122
44	-10.5125
▁geçmişi	-10.5126
▁deney	-10.5128
▁ru	-10.5132
▁$	-10.5135
▁aşı	-10.5138
3'	-10.514
▁alacak	-10.5147
▁nesne	-10.5149
▁gösterilen	-10.5151
▁firması	-10.5152
ā	-10.5153
06	-10.5153
▁mükemmel	-10.5161
kor	-10.5162
▁olayın	-10.5164
▁1963	-10.5167
▁halil	-10.5168
▁tarihten	-10.5171
▁nüfusunun	-10.5172
▁direktörü	-10.5173
▁salon	-10.5173
▁görmek	-10.5173
▁android	-10.5174
▁bayrak	-10.5174
niz	-10.5175
▁1918	-10.5175
▁yazarlar	-10.5175
▁karşıya	-10.5179
leştirme	-10.5182
▁ilaç	-10.5185
▁bugüne	-10.5186
▁kuran	-10.5188
▁ağı	-10.5188
kö	-10.5189
▁yıldır	-10.5191
▁güvenli	-10.5193
film	-10.5194
▁merkezli	-10.5194
▁kendisinden	-10.5201
▁dayanır	-10.5202
▁düzenleme	-10.5203
layıp	-10.5205
tah	-10.5206
▁ölümüne	-10.521
▁teşkil	-10.5213
▁krizi	-10.5224
▁katılır	-10.5226
▁peygamber	-10.523
▁olası	-10.5231
tv	-10.5233
▁verilmiş	-10.5233
▁dışına	-10.5236
leşmiş	-10.5237
▁akıllı	-10.5237
▁yöre	-10.5238
▁enerjisi	-10.5239
ılmıştır	-10.5242
▁çerçevesinde	-10.5245
ray	-10.5246
▁topluluk	-10.5247
▁kurulduğu	-10.5248
batı	-10.5248
▁sıralama	-10.5249
▁doğmuştur	-10.525
▁üstüne	-10.5255
▁gösterime	-10.5256
skoçya	-10.526
▁platform	-10.5261
▁alex	-10.5265
▁geçir	-10.5268
▁harp	-10.5268
▁yaparken	-10.5277
▁kitapları	-10.528
▁açar	-10.528
▁aç	-10.5282
▁mağara	-10.5282
▁boru	-10.5283
▁şeyler	-10.5284
▁hit	-10.5285
▁girerek	-10.5286
▁2-1	-10.5287
tion	-10.5288
▁dilleri	-10.5289
у	-10.5291
liğine	-10.5297
ebilen	-10.5298
▁okulun	-10.5305
▁operasyon	-10.5307
▁mezarlığı	-10.5309
ilmesi	-10.5311
▁açılış	-10.5312
▁bilimi	-10.5313
е	-10.5314
▁bronz	-10.5314
▁süreçte	-10.5315
▁uçağı	-10.5316
▁ovası	-10.532
lanmaktadır	-10.532
▁finali	-10.5322
gı	-10.5322
▁içermektedir	-10.5326
▁sanatçının	-10.5332
ami	-10.5334
▁chris	-10.5335
▁kavga	-10.5337
ayrıca	-10.5337
▁1943	-10.5344
▁smith	-10.5345
sür	-10.5347
rum	-10.5347
▁geçim	-10.535
aki	-10.535
▁perde	-10.535
▁yoğunluğu	-10.5351
▁kör	-10.5356
▁biçimi	-10.5361
▁ülkesi	-10.5366
▁ulu	-10.5367
▁şimdiki	-10.5368
▁bölgelerinde	-10.5375
hem	-10.5376
▁atmıştır	-10.5378
▁dilinde	-10.5379
▁ırk	-10.5381
▁hedefi	-10.5383
ura	-10.5386
▁sc	-10.5391
▁mensup	-10.5394
▁trakya	-10.5395
▁iz	-10.5396
▁tutar	-10.5397
kh	-10.5397
▁1000	-10.5399
▁jan	-10.5402
▁yolları	-10.5403
▁getirilmiştir	-10.5412
▁konferansı	-10.5417
▁yeraltı	-10.5417
▁golle	-10.5418
▁yüksekliği	-10.5419
▁biçiminde	-10.542
▁45	-10.542
▁araştırmaları	-10.5422
▁buhar	-10.5427
▁körfezi	-10.5429
▁sokak	-10.5436
▁gerekmektedir	-10.5439
û	-10.5441
ary	-10.5442
▁koyun	-10.5447
▁koleji	-10.5453
lendirme	-10.5454
▁dağlık	-10.5454
▁bireysel	-10.5455
▁çal	-10.5459
lenebilir	-10.5461
▁böylelikle	-10.5462
▁oylama	-10.5464
hir	-10.5466
▁şüphe	-10.5467
▁yerleşme	-10.5472
▁gelişen	-10.5474
▁monte	-10.5475
▁kaynaklar	-10.5475
▁bırak	-10.5476
!"	-10.5476
▁istediğini	-10.5478
▁kullanılmaya	-10.5478
▁gelişim	-10.5482
tch	-10.5482
▁hükümdar	-10.5482
▁kalıp	-10.5489
tığı	-10.5494
▁çekimi	-10.5497
ans	-10.5497
ılarak	-10.5499
▁hayatının	-10.5504
mine	-10.5506
▁pul	-10.5509
α	-10.5513
▁endüstri	-10.5513
▁ücretsiz	-10.5514
▁bellek	-10.5515
▁alana	-10.5517
▁makale	-10.5518
▁işgali	-10.5519
▁ilerleyen	-10.552
▁oksijen	-10.5531
mesini	-10.5532
▁değerleri	-10.5532
▁köpek	-10.5535
rek	-10.5545
▁etmişlerdir	-10.5545
▁muhalefet	-10.555
▁yanıt	-10.555
▁tesisleri	-10.5551
▁daniel	-10.5551
▁ligin	-10.5554
larıdır	-10.5558
▁dikkatini	-10.556
▁açıklamıştır	-10.556
▁mobil	-10.5562
▁with	-10.5565
▁seviye	-10.5565
▁belirtmiştir	-10.5566
▁süreli	-10.5569
-15	-10.5569
lanabilir	-10.5573
▁olmaları	-10.5573
▁galip	-10.5576
ou	-10.5577
-17	-10.559
▁hekim	-10.5593
▁kolayca	-10.5594
rü	-10.5594
▁alıcı	-10.5596
▁mevki	-10.5602
mit	-10.5604
▁2003'	-10.5604
▁anıt	-10.5606
▁zincir	-10.561
medi	-10.561
▁devri	-10.5611
▁gelme	-10.5615
▁etmeyi	-10.5616
▁kül	-10.5617
▁sınırı	-10.5618
▁albümünde	-10.562
tif	-10.5621
▁yönetici	-10.5624
▁geçiren	-10.5624
▁öldürür	-10.5627
▁super	-10.5628
▁etkisiyle	-10.563
▁sayıları	-10.5632
▁karşıtı	-10.5635
▁moğol	-10.5637
blo	-10.5638
▁konuşan	-10.5639
▁şarkısıyla	-10.564
▁öğretmeni	-10.5652
▁araçlar	-10.5653
▁nobel	-10.5656
hen	-10.566
▁manastır	-10.566
stein	-10.5661
▁demektir	-10.5663
kâr	-10.5667
▁eskişehir	-10.5668
▁ideal	-10.5669
▁klibi	-10.5673
▁ok	-10.5674
▁parmak	-10.5676
▁çiz	-10.5677
hy	-10.568
▁oğulları	-10.5681
▁ilişkili	-10.5685
▁belki	-10.5688
▁arnavutluk	-10.5689
billboard	-10.569
▁kazanmış	-10.5694
▁farkı	-10.5697
▁uyum	-10.57
▁üste	-10.5703
▁sunuldu	-10.5705
▁kalıcı	-10.5706
▁bulunmamaktadır	-10.5707
dünya	-10.5707
▁(2	-10.5707
mayı	-10.5708
▁kademe	-10.5709
▁kutu	-10.5711
42	-10.5712
field	-10.5714
eş	-10.5718
▁olduklarını	-10.5718
oh	-10.5721
▁yazıları	-10.5723
▁evren	-10.5724
▁sağlamaktadır	-10.5725
▁1956	-10.5729
mesine	-10.5731
▁optik	-10.5735
▁eli	-10.574
▁kapsayan	-10.574
cra	-10.5743
▁bant	-10.5747
▁köyleri	-10.5749
▁fonksiyon	-10.5749
53	-10.5751
▁serinin	-10.5756
▁tat	-10.5759
▁negatif	-10.5759
▁bildiri	-10.5761
▁sınav	-10.5765
▁albümünün	-10.5766
▁yedinci	-10.5768
5"	-10.5768
way	-10.577
▁hakem	-10.577
sem	-10.5772
▁ms	-10.5772
▁kişidir	-10.5773
istan	-10.5774
▁alfabesi	-10.5776
▁arkadaş	-10.5777
▁maddeler	-10.5778
▁12.	-10.578
▁kredi	-10.5781
emi	-10.5782
ting	-10.5783
▁işlemci	-10.5784
▁kağan	-10.5784
pon	-10.5786
age	-10.5786
▁hizmete	-10.5787
▁topçu	-10.5787
▁kariyeri	-10.579
ero	-10.5793
▁sistemler	-10.5796
▁mektebi	-10.5797
▁sta	-10.5797
mişlerdir	-10.5799
▁çalışmaktadır	-10.5799
▁eğri	-10.58
▁kurmak	-10.58
▁örneği	-10.5805
mur	-10.5806
▁asla	-10.5807
▁olabileceği	-10.5807
▁devamlı	-10.5811
▁baskısı	-10.5813
▁gönderilen	-10.5813
▁yatırım	-10.5814
▁ortamda	-10.5814
nak	-10.5814
▁subay	-10.5815
kim	-10.5816
▁yılmaz	-10.5816
gül	-10.5818
▁bilgisi	-10.582
51	-10.5822
▁neticesinde	-10.5823
▁hoş	-10.5824
▁çeker	-10.5824
▁değiştirme	-10.5825
▁yöneticisi	-10.5826
▁tutuklandı	-10.5829
▁kuramı	-10.5833
abilmesi	-10.5834
▁kısaca	-10.5837
▁max	-10.5839
▁sırt	-10.5842
sto	-10.5844
▁kocası	-10.5847
▁ekiplerinden	-10.5852
▁düşünür	-10.5853
▁gar	-10.5853
▁q	-10.5853
mir	-10.5856
▁filmleri	-10.5865
▁uygulanan	-10.5868
▁kırk	-10.5869
-16	-10.5869
▁başkanlığını	-10.5871
ata	-10.5873
▁1946	-10.5879
▁dikkate	-10.5883
▁öğrenim	-10.5885
▁mat	-10.5886
▁günümüz	-10.5887
▁yedek	-10.5888
▁yazılmıştır	-10.5889
▁değişme	-10.5889
▁vadi	-10.589
▁kanalında	-10.5893
▁yardımı	-10.5895
34	-10.5897
▁birlikler	-10.5898
▁rick	-10.59
ciler	-10.5902
▁alınmış	-10.5904
▁etkiler	-10.5904
▁yolculuk	-10.5904
▁programları	-10.5907
▁takımıyla	-10.5909
93	-10.591
▁ahşap	-10.591
▁bölümleri	-10.5912
sur	-10.5916
43	-10.5917
▁yerleri	-10.5918
▁caddesi	-10.592
▁açılmıştır	-10.5921
▁idaresi	-10.5922
▁1954	-10.5925
tos	-10.5926
▁kıyısında	-10.5928
▁beden	-10.5928
▁korunması	-10.5929
▁ediyordu	-10.5932
▁rap	-10.5932
▁kutup	-10.594
▁ep	-10.594
▁avcı	-10.5941
▁league	-10.5942
▁alanlar	-10.5944
est	-10.5948
▁orkestrası	-10.595
▁geliştirdi	-10.595
▁olmalıdır	-10.5951
▁varsa	-10.5952
▁düzenledi	-10.5956
▁matematiksel	-10.5958
▁gezegen	-10.5961
▁1940	-10.5963
▁koydu	-10.5966
lamış	-10.5966
▁grupları	-10.5968
▁lige	-10.5969
▁öğrenimini	-10.5974
▁oscar	-10.5974
▁eserinde	-10.5975
set	-10.5976
▁gölge	-10.5978
▁kalite	-10.5979
lma	-10.598
▁olasılık	-10.598
52	-10.5981
▁gösterilir	-10.5983
▁politikası	-10.5993
▁maçları	-10.6
▁müttefik	-10.6
▁sadık	-10.6004
sah	-10.6011
ا	-10.6017
gli	-10.6017
▁bulan	-10.6018
▁noktada	-10.6019
▁kuvvetler	-10.6019
▁düzeni	-10.6019
▁iletken	-10.6019
▁1948	-10.602
▁14.	-10.6029
▁gelindiğinde	-10.6037
▁1959	-10.6037
▁orduları	-10.604
abilmektedir	-10.6041
▁değiştirildi	-10.6044
▁kümesi	-10.6048
▁mod	-10.6048
▁mahalledir	-10.6049
▁far	-10.605
rc	-10.6054
▁kapsamlı	-10.6055
nal	-10.6055
▁işler	-10.6055
▁ortalarında	-10.6059
spe	-10.606
▁kadrosuna	-10.6061
▁hac	-10.6063
vir	-10.6063
▁verilmektedir	-10.6066
▁kazanır	-10.6069
▁gerektiği	-10.6076
▁mahmut	-10.6083
▁sanal	-10.6087
▁yarışı	-10.6087
kol	-10.6087
▁cinayet	-10.6088
▁dizide	-10.6091
kay	-10.6091
gs	-10.6092
▁girmiş	-10.6094
▁anılır	-10.6095
▁2002'	-10.6104
▁girişim	-10.6104
▁yap	-10.6105
08	-10.6107
▁değişir	-10.6107
ning	-10.6107
ori	-10.6108
form	-10.6109
▁mahmud	-10.611
sha	-10.6112
▁töreni	-10.6113
kul	-10.6113
▁kitaplar	-10.6113
▁ulaşmıştır	-10.6116
▁drama	-10.6116
▁yarısı	-10.6116
duğu	-10.6116
oy	-10.6116
▁peri	-10.6117
rip	-10.6124
▁istasyonu	-10.6128
02	-10.6128
▁yöntemleri	-10.6129
▁yıldızı	-10.6133
nie	-10.6133
zel	-10.6136
▁sessiz	-10.6136
▁bor	-10.6137
▁heyeti	-10.6138
▁davranış	-10.6141
book	-10.6144
▁turu	-10.6145
maktaydı	-10.6145
▁oluşmuştur	-10.6148
▁şarkısını	-10.6149
▁hastanesi	-10.6151
▁olağanüstü	-10.6152
▁numarası	-10.6152
▁boğaz	-10.6154
▁tepesi	-10.6155
tim	-10.6159
▁insanı	-10.6163
▁kalabalık	-10.6165
▁mesaj	-10.6165
log	-10.6167
▁tavsiye	-10.6168
▁örnekleri	-10.617
▁kesme	-10.6171
▁eleştiriler	-10.6174
giller	-10.6177
ıdır	-10.6183
▁dağılım	-10.6184
▁kafkasya	-10.6185
▁bağımsızlığını	-10.6185
▁çoklu	-10.6187
lanıp	-10.6189
▁yazılar	-10.6194
63	-10.6199
”,	-10.6199
▁kaçır	-10.6203
▁1942	-10.6203
▁çaba	-10.6203
▁filmler	-10.6207
▁dersler	-10.6208
▁deli	-10.6208
▁gelişmeler	-10.6209
▁1920'	-10.6225
▁one	-10.6227
klarını	-10.6229
▁1957	-10.6231
▁önemi	-10.6232
▁sürer	-10.6232
57	-10.6234
▁rahat	-10.6237
▁dönemine	-10.6238
▁eriş	-10.624
▁filminin	-10.6241
▁gene	-10.6241
▁bek	-10.6242
▁tutan	-10.6247
▁selanik	-10.6248
low	-10.6249
▁getirilen	-10.6249
ral	-10.6249
kül	-10.625
▁özelliklerini	-10.6256
▁ağrı	-10.6257
▁tarz	-10.626
▁çağrı	-10.6263
▁dayanmaktadır	-10.6268
▁ülkeye	-10.6268
orta	-10.6272
▁verilmesi	-10.6277
▁yeteneği	-10.6278
▁kitapta	-10.6278
yet	-10.6283
abilmek	-10.6283
▁penaltı	-10.6283
cus	-10.6284
mekteydi	-10.6293
▁seçilmiş	-10.6293
▁geçmesi	-10.6294
▁mutlak	-10.6295
0,000	-10.6295
▁lord	-10.6297
▁karışık	-10.6298
olog	-10.6302
▁futbolcudur	-10.6304
▁kulübün	-10.6304
▁kütahya	-10.6304
09	-10.6304
▁sporcu	-10.6305
▁güvenliği	-10.6305
▁beni	-10.6305
▁1962	-10.6307
▁girişi	-10.6308
ung	-10.6309
gör	-10.631
pek	-10.6312
▁tanımlar	-10.6313
▁çalışırken	-10.6314
▁yetersiz	-10.6315
▁çıkıp	-10.6315
▁kömür	-10.6317
▁je	-10.6318
▁tanımlanır	-10.6321
▁voleybol	-10.6323
▁adındaki	-10.6324
gue	-10.6325
▁sorunlar	-10.6329
not	-10.6329
ré	-10.6336
▁bölgeyi	-10.6338
posta	-10.634
▁çatışmalar	-10.6343
▁onay	-10.6349
▁arttı	-10.6352
▁çektiği	-10.6353
▁yüzyıldan	-10.6354
▁konferans	-10.6357
türkçe	-10.636
▁döneminin	-10.636
▁ağabeyi	-10.636
▁doğduğu	-10.6363
▁karayolu	-10.6364
▁tarihindeki	-10.6365
▁üzüm	-10.6367
▁sp	-10.637
▁alanlarında	-10.6371
ilmiştir	-10.6372
skender	-10.6374
▁1958	-10.6376
03	-10.6377
-5	-10.638
▁kablo	-10.638
▁sürecinde	-10.6384
▁geleneği	-10.6389
▁formasını	-10.6393
▁aldılar	-10.6394
▁başrol	-10.6394
red	-10.6397
rich	-10.6398
▁çekimleri	-10.64
▁çıkarılan	-10.6401
ric	-10.6407
▁konularda	-10.6411
▁kullan	-10.6415
ence	-10.6416
▁zira	-10.6418
▁alınma	-10.6423
yorum	-10.6424
laştırma	-10.6425
▁ren	-10.6426
▁sanatçılar	-10.6431
▁halep	-10.6431
▁ani	-10.6432
▁döneme	-10.6433
▁bundesliga	-10.6436
ebilmek	-10.6438
uri	-10.6439
▁komuta	-10.6449
▁ismiyle	-10.645
▁yazmaya	-10.6452
oid	-10.6454
▁kosova	-10.6455
▁maddesi	-10.6459
müştür	-10.646
ilen	-10.6461
▁williams	-10.6462
▁sistemini	-10.6466
▁geçmişte	-10.6466
▁grupta	-10.6468
▁reddetti	-10.6469
yal	-10.647
doğu	-10.647
▁zelanda	-10.6474
▁gitmek	-10.6477
▁kont	-10.648
tre	-10.648
▁saniye	-10.648
▁tokat	-10.6483
▁erdoğan	-10.6484
▁parçacık	-10.6487
▁kırsal	-10.6487
▁okulda	-10.6488
▁söylenir	-10.6493
▁üçlü	-10.6493
▁klavye	-10.6493
▁1930'	-10.6497
▁balıkesir	-10.6499
sing	-10.6501
▁kaybı	-10.6501
▁komite	-10.6505
▁mezarı	-10.6509
▁dayan	-10.6511
tem	-10.6512
к	-10.6515
▁edil	-10.6515
▁yarışmada	-10.6516
▁uyu	-10.6516
▁dua	-10.6517
▁hükûmeti	-10.6518
▁pir	-10.6519
▁cilt	-10.6519
▁kâğıt	-10.6521
göz	-10.6522
▁yarışmaya	-10.6525
▁çukur	-10.6525
▁cal	-10.653
▁manchester	-10.6531
▁kıl	-10.6531
▁vermesi	-10.6532
▁organ	-10.6534
▁hareketleri	-10.6534
▁cinsiyet	-10.6534
_3	-10.6539
▁düşme	-10.6541
▁adları	-10.6547
▁ilerleme	-10.6547
▁oluşu	-10.6549
▁açtığı	-10.6552
▁ilçenin	-10.6555
▁uğradı	-10.6555
lığına	-10.6557
well	-10.6558
▁faz	-10.6558
leştirilmiş	-10.6558
▁öğrencileri	-10.656
dman	-10.6561
▁kişiye	-10.6561
▁devir	-10.6568
vit	-10.6569
▁soylu	-10.657
▁romalılar	-10.6571
▁fayda	-10.6573
и	-10.6575
▁hücum	-10.6576
bes	-10.6577
▁teorik	-10.6579
▁gitme	-10.6582
kü	-10.6583
▁tatil	-10.6586
dikleri	-10.659
▁bilimleri	-10.6596
raz	-10.6598
▁ağacı	-10.6599
▁deneysel	-10.6601
▁köylü	-10.6605
▁yüzyıla	-10.6605
▁ayakta	-10.6607
nar	-10.661
▁görevlisi	-10.6616
▁pencere	-10.6619
▁inter	-10.6619
▁dizisinde	-10.662
madan	-10.6621
▁miras	-10.6626
soy	-10.6626
▁oluşturdu	-10.6627
▁emre	-10.6627
▁kars	-10.6628
▁1939	-10.6628
▁öncelikle	-10.6628
▁seçimlerde	-10.6629
▁mermer	-10.663
mel	-10.6631
▁kardeşler	-10.6632
▁ot	-10.6632
▁okur	-10.6633
lam	-10.6634
▁gruptan	-10.6635
▁zorla	-10.6638
alan	-10.6639
▁dairesi	-10.6642
▁hapse	-10.6643
▁tehlikeli	-10.6644
aş	-10.6644
▁ayna	-10.6644
▁referans	-10.6646
▁fakülte	-10.665
▁ittifak	-10.6654
▁endişe	-10.6656
▁rıza	-10.6656
▁hıristiyan	-10.6658
ex	-10.6659
▁platformu	-10.666
▁getir	-10.6663
▁kastamonu	-10.6666
▁yaşına	-10.6667
▁(17	-10.6669
▁bölgesine	-10.667
▁bakım	-10.6673
▁karşılaşma	-10.6677
▁fırsat	-10.6677
▁köylüler	-10.6683
ph	-10.6683
▁farsça	-10.6683
▁keskin	-10.6686
▁mahalleye	-10.669
▁göze	-10.6691
▁denize	-10.6693
▁söylediği	-10.6695
▁atmosfer	-10.6695
▁tümeni	-10.6696
▁sebeple	-10.6703
hin	-10.6703
▁filo	-10.6704
▁albümden	-10.6704
ildi	-10.6705
rah	-10.6706
▁gibidir	-10.6706
ns	-10.6707
▁kanser	-10.6707
▁stratejik	-10.6708
▁atış	-10.6708
▁meydanı	-10.671
▁mimarlık	-10.6714
▁pakistan	-10.6714
-4	-10.672
▁hükümdarı	-10.6722
▁tarafı	-10.6723
▁yapay	-10.6725
▁göçmen	-10.6726
▁kaybetmiştir	-10.6726
▁kaba	-10.6727
▁liberal	-10.6733
aklı	-10.6735
▁kriz	-10.6735
ios	-10.674
▁hareketli	-10.674
*	-10.6741
▁parçalar	-10.6742
▁uyuşturucu	-10.6744
spanyolca	-10.6745
rie	-10.6745
lçesi	-10.6746
▁sav	-10.6746
▁1924	-10.6747
▁modelleri	-10.6749
2)	-10.6753
▁devamı	-10.6754
▁öncü	-10.6756
▁komutan	-10.676
▁değiştirdi	-10.6761
▁may	-10.6762
▁mary	-10.6764
▁1955	-10.6766
▁ulaşır	-10.6766
▁görmüş	-10.6767
▁edici	-10.6773
▁sertifika	-10.6774
▁gö	-10.6776
şehir	-10.6776
▁hip	-10.6782
▁bulunmakta	-10.6784
▁açıklamada	-10.6785
dük	-10.6785
▁yurdu	-10.6792
▁araçları	-10.6802
of	-10.6808
▁emniyet	-10.6812
▁linux	-10.6812
▁taraftan	-10.6812
▁olurlar	-10.6813
▁anı	-10.6813
▁şehit	-10.6816
▁1919	-10.6816
▁iyice	-10.6816
▁1921	-10.682
▁çekici	-10.682
▁yazısı	-10.6827
bon	-10.6828
▁kuvvetlerinin	-10.6828
▁tatar	-10.6828
▁gazetesinde	-10.6831
▁sütun	-10.6831
oannis	-10.6832
▁tıbbi	-10.6832
▁bilinmeyen	-10.6832
▁mini	-10.6833
bak	-10.6837
▁medrese	-10.6837
jan	-10.6845
▁altyapı	-10.6846
bank	-10.6854
▁kulesi	-10.6855
▁sevgilisi	-10.6857
▁kadrosunda	-10.6859
ella	-10.6859
ıldığı	-10.6862
▁kilit	-10.6862
▁boyut	-10.6863
▁deneyim	-10.6864
▁big	-10.687
▁mutlu	-10.687
▁bilinmemektedir	-10.6872
▁analizi	-10.6873
lçede	-10.6874
og	-10.6876
▁albert	-10.6876
▁1999'	-10.6877
gg	-10.6878
▁biten	-10.688
▁ölür	-10.688
ō	-10.6881
▁indir	-10.6882
ves	-10.6884
▁yakınında	-10.6884
▁şehrinin	-10.6885
sıdır	-10.6887
hid	-10.6887
▁tour	-10.6891
▁çevresindeki	-10.6893
ef	-10.69
ğe	-10.6904
▁değişimi	-10.6907
lenmektedir	-10.6907
ile	-10.6907
▁karakterini	-10.691
▁sho	-10.691
vil	-10.6912
▁kurmuştur	-10.6914
▁prix	-10.6914
▁sözcük	-10.6919
▁rumeli	-10.6923
▁elektro	-10.6925
▁arasından	-10.6927
▁green	-10.6929
▁taban	-10.693
▁altay	-10.6932
▁kullanmıştır	-10.6934
▁bulunmuş	-10.6936
iv	-10.6937
▁yendi	-10.6939
cho	-10.6939
▁ordunun	-10.6939
▁shi	-10.694
ola	-10.6941
▁yapılma	-10.6942
▁form	-10.6943
▁listelerinde	-10.6943
▁inan	-10.6948
▁filozof	-10.6949
ılabilir	-10.6949
▁tl	-10.6952
abileceği	-10.6955
▁yapının	-10.6955
▁yoktu	-10.6961
wood	-10.6962
▁sahte	-10.6964
▁fox	-10.6965
mparatorluk	-10.6965
sil	-10.6966
▁etkinlik	-10.6966
▁ray	-10.6968
▁otobüs	-10.6968
▁kahve	-10.6968
pu	-10.6968
ici	-10.6973
▁örtüsü	-10.6973
▁sıraya	-10.6977
▁şahin	-10.6978
dî	-10.6983
▁macera	-10.6984
▁va	-10.6984
▁hall	-10.6985
▁doğrusal	-10.6985
▁avukat	-10.6986
▁değerlendirme	-10.6987
▁yahudiler	-10.6989
▁burun	-10.6991
▁ölmüştür	-10.6993
▁açmıştır	-10.6994
▁oluşturma	-10.6994
▁önlemek	-10.6997
▁sinyal	-10.7
▁fo	-10.7001
▁yazan	-10.7002
▁vs	-10.7004
▁sebze	-10.7005
▁kule	-10.7009
▁bildirdi	-10.7013
dam	-10.7013
▁fiyat	-10.7013
▁toplantı	-10.7014
▁öğren	-10.7016
▁biriydi	-10.7022
▁gidip	-10.7024
▁problem	-10.7024
▁getirmek	-10.7027
▁kemik	-10.7028
bre	-10.7028
▁vezir	-10.7032
▁(3	-10.7033
▁villa	-10.7033
pen	-10.7034
▁çöl	-10.7034
▁olmasının	-10.7035
▁36	-10.7035
▁gösterimi	-10.7039
▁tu	-10.704
▁başlaması	-10.7041
▁bırakma	-10.7042
▁kurak	-10.7046
ong	-10.7048
gra	-10.7048
▁karşılaştı	-10.705
▁direkt	-10.7058
▁yuva	-10.7059
▁zeki	-10.7059
bl	-10.7063
sp	-10.7066
▁lübnan	-10.7071
sunu	-10.708
▁alexander	-10.7082
▁çocukların	-10.7082
▁duran	-10.7084
▁400	-10.7089
▁win	-10.7089
▁asi	-10.7089
о	-10.7098
lemiştir	-10.7098
▁emri	-10.7099
▁çeşme	-10.7101
▁verici	-10.7104
▁ziya	-10.7105
▁organik	-10.7105
▁görevleri	-10.7106
▁eşya	-10.7107
▁radikal	-10.7107
);	-10.7108
▁şarap	-10.7112
▁çevresi	-10.7114
▁evlenme	-10.7114
▁post	-10.7116
▁ağırlığı	-10.7117
laması	-10.7117
ium	-10.7121
▁arabistan	-10.7122
▁doku	-10.7123
fal	-10.7124
▁şeytan	-10.7124
dıkları	-10.7125
▁birisidir	-10.7125
▁1997'	-10.7127
▁sonuçlandı	-10.7129
▁dönemlerinde	-10.7131
mini	-10.7134
▁açılması	-10.7136
▁egemen	-10.7142
leridir	-10.7145
▁yumuşak	-10.7146
▁34	-10.7149
nov	-10.715
▁testi	-10.7153
▁olduğunda	-10.7153
▁diyerek	-10.7155
▁pala	-10.7155
▁inanç	-10.7159
▁pra	-10.7164
▁1917	-10.7164
▁öldürülmesi	-10.7165
▁akımı	-10.7166
▁baraj	-10.7169
▁firma	-10.717
▁motoru	-10.717
▁saldırıya	-10.7172
▁yüzü	-10.7177
▁bon	-10.7177
dol	-10.7181
▁azalt	-10.7184
▁destekleyen	-10.7185
▁2018'	-10.7185
▁köprüsü	-10.7185
▁ordusunu	-10.7185
lıyor	-10.7186
▁fas	-10.7191
▁sayılır	-10.7193
▁brown	-10.7193
▁geliştirilmiş	-10.7194
▁öğrenir	-10.7194
▁mono	-10.7194
▁askerlik	-10.7196
▁ürünü	-10.7196
▁uyarı	-10.7197
▁taşımaktadır	-10.7199
▁vietnam	-10.7203
▁air	-10.7205
▁yukarıda	-10.7206
▁1998'	-10.7206
▁boğazı	-10.7206
▁aşamasında	-10.7206
▁bes	-10.7207
▁türklerin	-10.721
şah	-10.7216
_1	-10.7217
▁ruslar	-10.722
▁tarihe	-10.722
▁cezayir	-10.7224
▁bölgeleri	-10.7224
í	-10.7224
zlanda	-10.7225
▁leon	-10.7225
ity	-10.7228
▁deresi	-10.7229
▁sicilya	-10.7232
rim	-10.7233
▁tören	-10.7238
amadı	-10.7239
▁futbola	-10.7242
▁düzenlediği	-10.7242
sor	-10.7247
mâ	-10.7248
hei	-10.7251
▁sürmüştür	-10.7255
▁bırakır	-10.7256
▁kala	-10.7256
▁haftasında	-10.7258
▁arnavut	-10.7259
▁ücret	-10.7261
▁reis	-10.7263
baba	-10.7265
▁tuş	-10.727
▁kullanmaya	-10.7273
▁felsefesi	-10.7275
▁yüzölçümü	-10.7275
del	-10.7277
▁2001'	-10.7278
▁birçoğu	-10.7279
▁kuram	-10.7279
▁futbolu	-10.728
▁bbc	-10.7288
▁1953	-10.7289
▁kullanıcılar	-10.7292
▁ilginç	-10.7293
▁puanla	-10.7296
▁rahatsız	-10.7297
▁izleyici	-10.7303
tiği	-10.7306
▁personel	-10.731
▁1938	-10.731
▁işık	-10.731
lum	-10.7313
▁cenaze	-10.7313
siniz	-10.7314
▁1923	-10.7319
▁örnekler	-10.7319
▁işkence	-10.7323
▁esin	-10.7325
▁gerekse	-10.7326
▁tanınır	-10.7327
▁will	-10.733
▁kalması	-10.733
nd	-10.7331
▁yağma	-10.7334
▁sor	-10.7335
laş	-10.7335
beyaz	-10.7336
▁moda	-10.7337
▁animasyon	-10.7338
▁kahramanı	-10.734
▁yemeği	-10.7341
▁gelişimi	-10.7345
kun	-10.7347
▁mimarisi	-10.7347
▁yerleşen	-10.735
▁kapasitesi	-10.7351
▁yolunda	-10.7353
▁değişikliği	-10.7353
▁bob	-10.7353
ük	-10.7354
non	-10.7355
▁geçirmek	-10.7357
▁arena	-10.7359
lçenin	-10.7365
»	-10.7368
▁eşliğinde	-10.7369
▁kilisenin	-10.737
▁soruşturma	-10.7374
▁olmasa	-10.7374
▁arı	-10.7381
▁timur	-10.7382
▁taşımalı	-10.7382
pol	-10.7387
▁kaz	-10.739
▁port	-10.7392
▁2-0	-10.7393
▁kimliği	-10.7394
▁evre	-10.7395
fil	-10.7395
ub	-10.7399
dp	-10.74
▁afganistan	-10.74
▁şili	-10.7401
т	-10.7401
4'	-10.7401
▁yerleşik	-10.7404
▁beğeni	-10.7405
▁sıcaklığı	-10.7406
illa	-10.7406
▁birinde	-10.7407
▁hazar	-10.7409
▁saldırgan	-10.7411
▁üstü	-10.7411
ichi	-10.7413
▁höyük	-10.7414
▁yazarın	-10.7415
dim	-10.7416
▁dalı	-10.7416
vet	-10.7417
rma	-10.7418
▁fırtına	-10.742
▁palm	-10.7424
▁ışığın	-10.7426
ira	-10.7429
▁füze	-10.743
▁anlamında	-10.743
▁oyunculuk	-10.7431
fir	-10.7431
era	-10.7432
tom	-10.7432
▁kedi	-10.7436
▁arpa	-10.7437
▁çiftlik	-10.7438
lendiği	-10.7438
▁dünyadaki	-10.7438
100	-10.7441
▁tanrısı	-10.7442
▁kural	-10.7443
▁by	-10.7447
▁rna	-10.7448
▁aracın	-10.745
▁taşın	-10.7452
▁otuz	-10.7454
alı	-10.7455
cel	-10.7459
▁yakınlarındaki	-10.7461
▁uğur	-10.7465
▁yarar	-10.7466
▁düş	-10.7467
▁sü	-10.747
▁hesaplama	-10.7472
▁kartal	-10.7479
▁oynamaya	-10.7479
lamak	-10.7482
▁durumuna	-10.7482
▁görmüştür	-10.7486
▁anlaştı	-10.7488
▁cins	-10.7491
▁havaalanı	-10.7494
▁bill	-10.7496
▁cisim	-10.7498
nus	-10.7502
▁müdür	-10.7503
▁col	-10.7506
▁icra	-10.7506
▁osmanlılar	-10.7506
zaman	-10.7508
▁harekâtı	-10.7512
glo	-10.7513
▁albay	-10.7513
▁şart	-10.7514
ktaydı	-10.7515
cak	-10.7517
▁koşulları	-10.752
arı	-10.752
▁tesis	-10.752
▁gra	-10.7521
ort	-10.7521
▁kapak	-10.7522
▁sey	-10.7523
▁şehzade	-10.7526
time	-10.7526
▁arkeolojik	-10.7528
▁üyesidir	-10.7534
kes	-10.7535
▁sekreteri	-10.7536
▁hâlâ	-10.7537
▁napoli	-10.7539
▁seçil	-10.7539
ık	-10.7541
▁she	-10.7542
▁bisiklet	-10.7547
▁turnuvada	-10.7549
.<	-10.7549
ön	-10.7549
kas	-10.7554
▁adres	-10.7556
▁piyasa	-10.7557
▁genelkurmay	-10.7557
▁tele	-10.7558
▁yerler	-10.7558
far	-10.7559
▁bırakarak	-10.7559
▁dernek	-10.7559
▁tre	-10.7562
ere	-10.7563
▁karşılığı	-10.7565
▁demiştir	-10.7569
▁çanak	-10.7571
▁kaybeden	-10.7574
▁görevden	-10.7577
▁amaçla	-10.7582
mö	-10.7583
▁başlangıcı	-10.7584
▁zamanlı	-10.7586
▁royal	-10.759
▁torunu	-10.7591
öl	-10.7591
▁nur	-10.7598
▁bağlantılı	-10.76
ano	-10.7602
▁hastalığın	-10.7605
▁mas	-10.7605
▁olmaz	-10.7611
▁birimleri	-10.7612
▁balkanlar	-10.7614
ari	-10.7614
▁konumu	-10.7615
▁merkezleri	-10.7616
▁haftada	-10.7617
▁şiirleri	-10.7617
▁mihail	-10.7621
▁hediye	-10.7625
▁günlerde	-10.7625
▁uyumlu	-10.7632
-10	-10.7634
fat	-10.7635
▁serisinin	-10.7636
▁filosu	-10.764
▁takma	-10.7643
▁alanına	-10.7645
▁scott	-10.7645
▁açma	-10.7647
▁seviyede	-10.7649
▁seçme	-10.7651
▁görüşme	-10.7653
▁yüzlerce	-10.7654
▁derecesi	-10.7655
▁geride	-10.7661
▁simon	-10.7662
▁1933	-10.7664
çişleri	-10.7664
▁çıkmaya	-10.7666
▁cihazlar	-10.7667
▁parlamentosu	-10.767
▁geçme	-10.7671
▁servisi	-10.7674
▁sürme	-10.7674
▁beklenen	-10.7676
xi	-10.7677
vâ	-10.7678
▁çalışmak	-10.7678
▁joe	-10.7678
mura	-10.7678
fu	-10.7679
nos	-10.768
▁büyüme	-10.7682
▁mel	-10.7684
▁seviyesi	-10.769
▁fon	-10.769
▁chicago	-10.7691
▁yaratıcı	-10.7692
▁sultanı	-10.7694
özellikle	-10.7699
▁yapıları	-10.7699
kteydi	-10.7699
▁istihbarat	-10.7699
▁evrensel	-10.7699
▁bana	-10.7699
▁yollar	-10.7703
▁nite	-10.7703
▁borç	-10.7704
▁harf	-10.7704
iki	-10.7704
▁gerçekleştir	-10.7707
▁chp	-10.7714
▁taç	-10.7714
▁cep	-10.7715
▁yarattığı	-10.7717
rken	-10.7721
▁çözül	-10.7727
▁aşireti	-10.7728
göl	-10.7728
esi	-10.7731
▁kuşatması	-10.7731
▁ikincisi	-10.7732
▁öğrencilerin	-10.7735
▁turnuvası	-10.7737
uç	-10.774
▁sö	-10.7742
▁em	-10.7744
sâ	-10.7745
kent	-10.7745
oba	-10.775
▁tasarlanmış	-10.7752
▁kira	-10.7753
cs	-10.7755
▁sayısının	-10.776
▁war	-10.7761
▁mars	-10.7762
°	-10.7763
▁depolama	-10.7763
▁topraklarında	-10.7763
deniz	-10.7765
zam	-10.7765
▁topladı	-10.7767
▁atar	-10.7772
▁1952	-10.7773
▁dergisinde	-10.7774
▁38	-10.7779
▁merkezinin	-10.7782
▁sunar	-10.7785
▁kavram	-10.7785
▁çekilmiştir	-10.7786
▁salih	-10.7789
5'	-10.779
▁plastik	-10.779
▁kuzeyde	-10.7793
▁türkleri	-10.7795
▁nişan	-10.7795
▁jones	-10.7797
▁haberi	-10.7799
▁oranında	-10.78
▁görüldüğü	-10.78
▁anlayışı	-10.7802
▁yapıya	-10.7806
▁ez	-10.7806
▁konular	-10.7807
▁psikolojik	-10.7808
▁yerden	-10.7809
cal	-10.7811
avrupa	-10.7812
▁kuralları	-10.7813
▁bakü	-10.7816
yazı	-10.7817
▁yahudilerin	-10.7817
▁ilave	-10.7817
▁kodu	-10.7818
▁1947	-10.7818
▁sisteminde	-10.7818
▁geldiğini	-10.7819
▁uzaklıkta	-10.7823
▁aslan	-10.7823
▁dost	-10.7824
▁yılan	-10.7825
▁friedrich	-10.7826
▁yazında	-10.783
▁insanlara	-10.7836
▁izleyen	-10.7838
mil	-10.7842
▁plana	-10.7843
▁küba	-10.7846
▁adanın	-10.7847
▁yaşamaya	-10.7848
▁ayrılma	-10.785
▁gittiği	-10.785
▁kazası	-10.7851
wan	-10.7853
▁reform	-10.7854
tam	-10.7857
▁bizzat	-10.7859
▁turne	-10.7861
▁bitkiler	-10.7864
▁yüklü	-10.7865
▁üyelerinin	-10.7865
yani	-10.7866
des	-10.7867
say	-10.7868
▁cemal	-10.7868
▁15.	-10.787
▁1922	-10.787
ona	-10.7871
▁şöyledir	-10.7872
zon	-10.7872
▁1910	-10.7876
▁jandarma	-10.7881
slâm	-10.7881
▁belediyespor	-10.789
▁formu	-10.7895
malıdır	-10.7897
▁yiyecek	-10.7901
ix	-10.7902
▁tut	-10.7902
▁kıyasla	-10.7903
▁gözü	-10.7903
tuğ	-10.7906
▁ülkeden	-10.7907
▁ziyade	-10.7909
▁başlıklı	-10.791
▁kişiden	-10.7913
sion	-10.7913
▁sigorta	-10.7914
▁eğitimine	-10.7914
▁fk	-10.7921
▁1996'	-10.7923
▁davul	-10.7923
ebilecek	-10.7925
▁karaman	-10.7931
▁memur	-10.7932
▁başlamıştı	-10.7934
zin	-10.7935
▁fakir	-10.7937
▁evrenin	-10.7938
▁dönüşüm	-10.7938
▁kaynaklarda	-10.7939
ılıp	-10.7941
▁verdiler	-10.7945
▁cuma	-10.7947
▁şifre	-10.7948
▁karakterler	-10.795
▁mes	-10.7951
▁izler	-10.7956
▁tim	-10.7959
▁kışın	-10.796
▁aşama	-10.7961
emedi	-10.7962
▁yönetti	-10.7962
lus	-10.7964
▁fil	-10.7965
▁bulma	-10.7965
üstü	-10.7968
ğu	-10.7968
▁rast	-10.7971
▁katlı	-10.7973
▁açıklar	-10.7975
tera	-10.7976
▁cin	-10.7977
▁kaçtı	-10.7978
sia	-10.7979
▁elektromanyetik	-10.798
▁trafik	-10.798
▁etkinliği	-10.7982
▁operası	-10.7984
▁1992'	-10.7984
▁birleşme	-10.7985
▁etmekte	-10.7988
▁binanın	-10.7988
-20	-10.7991
ted	-10.7994
▁mari	-10.7996
malı	-10.8
die	-10.8002
lly	-10.8004
sizlik	-10.8005
▁yazın	-10.8008
▁hırvatistan	-10.8013
▁golü	-10.8016
▁64	-10.8018
▁konuları	-10.802
▁vücudun	-10.8021
▁bireyler	-10.8024
▁ikamet	-10.8024
▁başlığı	-10.8026
▁günleri	-10.8028
▁takımdan	-10.8029
▁brian	-10.803
▁duvarı	-10.8031
▁toz	-10.8032
▁premier	-10.8035
▁çerçeve	-10.8041
▁versiyon	-10.8042
▁geçit	-10.8043
şletme	-10.8044
bs	-10.8046
▁açığa	-10.8047
▁suudi	-10.8048
▁mon	-10.8062
yat	-10.8062
▁yoğunluk	-10.8063
▁karaca	-10.8066
▁oyu	-10.807
stra	-10.807
▁kadı	-10.8074
▁bizim	-10.8075
▁başkanlığına	-10.8075
▁stil	-10.8077
н	-10.8078
▁hisse	-10.8078
via	-10.8079
▁pen	-10.8082
▁ayrılmış	-10.8082
▁rekor	-10.8082
▁göstermek	-10.8082
▁farklıdır	-10.8083
▁are	-10.8084
▁edebilir	-10.8087
sc	-10.8089
▁verdikleri	-10.8091
▁hop	-10.8091
▁1936	-10.8091
cin	-10.8092
▁stili	-10.8093
▁denetim	-10.8095
▁açıklanmıştır	-10.8096
▁formül	-10.81
▁yürürlüğ	-10.8101
▁çekilmesi	-10.8103
out	-10.8104
▁kullanıcıların	-10.8105
cri	-10.8106
dia	-10.8107
▁denklem	-10.8109
▁resimleri	-10.8111
▁hakkını	-10.8111
cc	-10.8114
▁organı	-10.8114
▁eğ	-10.8116
▁dizisinin	-10.8121
▁türbe	-10.8121
lla	-10.8122
▁etkinlikler	-10.8122
ə	-10.8124
niş	-10.8125
▁yazılımı	-10.8126
▁hitit	-10.8126
▁tümen	-10.8126
ig	-10.8128
▁akış	-10.8129
ring	-10.813
▁rey	-10.8133
▁yapımında	-10.8135
laz	-10.8137
▁hazırladı	-10.8138
▁cümle	-10.8139
▁maçlar	-10.814
▁1914	-10.8141
▁vatan	-10.8147
▁club	-10.8147
lot	-10.8149
laşmış	-10.8149
leşen	-10.8151
▁ale	-10.8152
▁biyo	-10.8152
▁verileri	-10.8152
▁uzunluğunda	-10.8155
yâ	-10.8157
▁gittikçe	-10.8159
▁1940'	-10.8162
▁üstlenmiştir	-10.8163
▁murad	-10.8163
▁paketi	-10.8163
▁şi	-10.8169
▁açan	-10.8169
▁tıpkı	-10.8172
▁sancak	-10.8174
▁vatandaşı	-10.8175
▁maddenin	-10.8175
▁rütbesine	-10.8176
git	-10.8178
▁sevgi	-10.8178
bis	-10.8179
▁türler	-10.818
▁ibadet	-10.8181
▁saldırdı	-10.8181
ız	-10.8182
▁metro	-10.8186
▁37	-10.8192
▁mekân	-10.8193
▁maksimum	-10.8193
▁kısımları	-10.8194
▁sürdürmektedir	-10.8197
▁anlayış	-10.8198
rov	-10.8201
▁gecesi	-10.8204
▁düzenlendi	-10.8205
▁oyuncuları	-10.821
mac	-10.8214
▁prusya	-10.8215
▁bahar	-10.8217
vel	-10.8223
para	-10.8228
yalı	-10.8229
▁şifreleme	-10.823
▁anlama	-10.8231
▁büyüklüğü	-10.8232
▁ilgisini	-10.8232
likleri	-10.8232
▁mı	-10.8233
▁radyasyon	-10.8236
▁olanlar	-10.8237
▁biyolojik	-10.8237
▁grubuna	-10.8238
▁tuna	-10.8241
▁gor	-10.8242
ebilmektedir	-10.8242
▁kulüpler	-10.8243
▁pamuk	-10.8249
ić	-10.825
kuş	-10.8252
ture	-10.8254
▁kitle	-10.8254
▁yatak	-10.8257
▁yarat	-10.8259
▁katılmak	-10.8261
▁kabile	-10.8262
ula	-10.8268
▁anlaşılmaktadır	-10.8272
▁sattı	-10.8273
▁güneyde	-10.8274
▁divan	-10.8274
rı	-10.8275
▁özet	-10.8275
▁girmesi	-10.8275
▁çocuğun	-10.8279
▁young	-10.828
▁kubbe	-10.828
yarak	-10.8284
▁1937	-10.8285
▁caz	-10.8286
▁öğrendi	-10.8286
▁başarmıştır	-10.8287
▁profesörü	-10.8287
▁ajansı	-10.8292
▁vol	-10.8295
şir	-10.8296
▁geliştirilmesi	-10.8296
▁kralın	-10.8298
▁hü	-10.83
▁bro	-10.8302
▁hol	-10.8307
▁panzer	-10.8308
▁beyliği	-10.831
sus	-10.8311
şim	-10.8312
▁kalkan	-10.8313
tık	-10.8314
▁ülkeyi	-10.8314
▁karışımı	-10.8317
çok	-10.832
çü	-10.8321
▁tamir	-10.8322
ebileceği	-10.8324
abi	-10.833
iyye	-10.8331
▁pal	-10.8333
▁barajı	-10.8336
▁tarihinden	-10.8337
▁1951	-10.8341
▁1925	-10.8342
▁1930	-10.8343
▁denizaltı	-10.8343
nci	-10.8345
▁üreme	-10.8346
▁evin	-10.8346
med	-10.8349
▁çarpışma	-10.835
▁nispeten	-10.8351
▁dünyasında	-10.8352
küçük	-10.8352
▁takımını	-10.8353
▁1949	-10.8353
▁değiş	-10.8357
▁eksen	-10.8357
▁hukuku	-10.8358
inci	-10.8359
▁dj	-10.836
▁aza	-10.836
▁hazine	-10.8364
▁tuttu	-10.8369
▁yakından	-10.837
▁mus	-10.8371
▁kurmuş	-10.8372
▁verildiği	-10.8372
▁dayanarak	-10.8376
▁1926	-10.8376
▁davran	-10.8378
▁sayılan	-10.8378
▁içeri	-10.8381
▁pratik	-10.8385
▁alçak	-10.8388
▁bilge	-10.8391
▁sembolü	-10.8393
▁şef	-10.8397
laştı	-10.8399
gh	-10.8401
▁üssü	-10.8401
▁komut	-10.8403
▁manga	-10.8404
kir	-10.8407
▁konservatuvarı	-10.8408
▁takımları	-10.8408
talyanca	-10.8413
▁ordusuna	-10.8413
▁playstation	-10.842
▁yayımlanmıştır	-10.8422
▁istila	-10.8423
▁sektör	-10.8424
▁yıldan	-10.8425
▁isminin	-10.8427
▁girme	-10.843
▁semt	-10.843
▁recep	-10.8433
▁sv	-10.8434
▁etmişti	-10.8435
▁içinden	-10.8437
▁eşitlik	-10.8438
▁kanadı	-10.8443
sın	-10.8443
ction	-10.8446
▁konserler	-10.8449
tanrı	-10.8452
▁ülkesinde	-10.8456
▁atıldı	-10.8461
▁öldüğü	-10.8466
▁yönlü	-10.8469
▁ispat	-10.8469
▁kilo	-10.8471
▁birincisi	-10.8473
▁ayrılması	-10.8473
▁120	-10.8474
▁1995'	-10.8475
▁edebi	-10.8475
▁demo	-10.8476
▁yorumlar	-10.8483
▁efsane	-10.8483
rd	-10.8484
▁keman	-10.8484
▁yüzyıllar	-10.8484
yn	-10.8486
▁öde	-10.8487
diler	-10.8489
▁günümüzdeki	-10.8489
ر	-10.849
▁gitarist	-10.8493
▁kul	-10.8494
▁haklarını	-10.8495
▁düzeyinde	-10.8498
▁getirilmesi	-10.8499
▁endüstrisi	-10.85
▁kanı	-10.85
end	-10.8501
▁garanti	-10.8502
▁litvanya	-10.8503
▁slav	-10.8506
▁elma	-10.8507
▁yürüttü	-10.8509
▁tanıtım	-10.8509
mont	-10.8511
▁dağlar	-10.8512
▁kuzeybatı	-10.8512
▁bilme	-10.8514
▁üzeri	-10.8518
▁uzaktan	-10.852
▁kahverengi	-10.8521
gur	-10.8521
▁cup	-10.8524
acı	-10.8524
ū	-10.8525
win	-10.8526
▁belir	-10.8528
▁oynama	-10.853
▁bahçesi	-10.8531
cek	-10.8532
▁1915	-10.8533
▁1991'	-10.8534
ılmaktadır	-10.8534
▁gösterme	-10.8539
ens	-10.8539
rica	-10.854
▁şefi	-10.8543
dağı	-10.8543
vor	-10.8543
▁school	-10.8544
▁çıkarma	-10.8545
▁kaldırılması	-10.8546
▁bölümler	-10.8547
▁bitti	-10.855
▁formasıyla	-10.8551
▁king	-10.8551
hersek	-10.8551
>"<	-10.8552
▁ex	-10.8552
ımı	-10.8552
leşti	-10.8552
▁tamamlandı	-10.8553
▁mir	-10.8556
ilerek	-10.8556
▁bat	-10.8556
wer	-10.8558
▁makinesi	-10.8559
new	-10.8559
▁mühendis	-10.8565
▁ilkesi	-10.8567
▁des	-10.8569
ân	-10.857
▁elinden	-10.8572
▁kazakistan	-10.8572
▁yoshi	-10.8573
▁ayırt	-10.8574
▁kayıtları	-10.8575
▁dükü	-10.8575
▁kesim	-10.858
▁boyun	-10.8581
lamaktadır	-10.8582
▁hikmet	-10.8583
▁konut	-10.8587
▁ulus	-10.8587
▁şube	-10.8588
▁ip	-10.8588
oka	-10.8592
kawa	-10.8593
▁kahire	-10.8595
▁imha	-10.8598
▁night	-10.86
▁bölgeler	-10.8601
▁1945'	-10.8601
▁arazisi	-10.8601
meyi	-10.8602
mid	-10.8603
▁durumun	-10.8603
▁çözümü	-10.8606
▁toplamı	-10.8607
▁youtube	-10.8607
▁duyduğu	-10.8608
▁komplo	-10.8608
back	-10.8609
▁lenin	-10.8612
▁koloni	-10.8613
▁programlama	-10.8617
▁muhafaza	-10.8617
▁noktaları	-10.8618
▁volkan	-10.8618
▁tüfek	-10.8618
▁sayısal	-10.8622
▁unvan	-10.8623
▁(%	-10.8626
▁karşıt	-10.8627
▁sakin	-10.8628
rarak	-10.8629
▁zeytin	-10.8631
▁cemaat	-10.8632
▁ah	-10.8633
▁savunan	-10.8634
▁yanlısı	-10.8634
▁kuşak	-10.8635
▁1993'	-10.8636
▁kuvvetli	-10.8642
ón	-10.8643
▁alaska	-10.8643
üç	-10.8644
▁markası	-10.8647
▁türkçesi	-10.8648
▁şeyin	-10.8648
_2	-10.8654
raw	-10.8656
luğunu	-10.8657
▁uygulamaya	-10.8657
▁başarıyla	-10.8659
▁dağıtım	-10.866
▁tarihçiler	-10.8661
▁bulut	-10.8661
▁koleksiyonu	-10.8662
▁okula	-10.8662
boy	-10.8662
▁düet	-10.8663
▁yeterince	-10.8666
▁yükselme	-10.8669
▁aldıkları	-10.867
şer	-10.8673
▁tedavisi	-10.8673
gio	-10.8673
▁çıkışı	-10.8678
gy	-10.868
▁çıkarıldı	-10.868
▁yoksa	-10.8684
▁shin	-10.8685
▁ilgisi	-10.8685
geliştirilmiştir	-10.8686
▁entertainment	-10.8686
[	-10.8689
▁alanın	-10.8694
▁batıda	-10.8695
▁ios	-10.8696
▁1927	-10.8698
bot	-10.8698
▁elçi	-10.87
▁belirtilen	-10.8702
idae	-10.8704
▁acil	-10.8705
cent	-10.8707
lt	-10.8707
▁akışı	-10.8707
tme	-10.8709
▁bulunuyor	-10.871
▁müşteri	-10.871
▁hayvanların	-10.8712
▁oluşmuş	-10.8715
▁yürütme	-10.8718
▁1934	-10.8718
▁olurken	-10.8718
000	-10.8723
▁desteğini	-10.8723
▁düşmüştür	-10.8728
▁international	-10.8728
▁koro	-10.8732
▁robot	-10.8733
▁çete	-10.8736
▁kampanya	-10.8737
▁terör	-10.8739
▁farklılık	-10.8739
▁arz	-10.8741
▁yaparlar	-10.8743
▁misafir	-10.8744
▁napolyon	-10.8749
▁tütün	-10.8749
▁pozisyon	-10.8751
▁bulmuştur	-10.8752
▁zaferi	-10.8753
▁yükselmiştir	-10.8753
▁1935	-10.8753
aba	-10.8753
▁doğuda	-10.8757
▁oyuncunun	-10.8759
▁sır	-10.876
ي	-10.8761
▁monarşi	-10.8761
▁sekizinci	-10.8762
▁isteme	-10.8768
▁stadyum	-10.877
▁düşmesi	-10.8771
▁katil	-10.8772
▁bölgesindeki	-10.8772
▁grammy	-10.8773
▁kaplı	-10.8778
▁kullanıl	-10.8779
▁sıkça	-10.878
▁1994'	-10.8781
klerini	-10.8782
▁odak	-10.8784
gia	-10.8785
gerçekleştirildi	-10.8787
kendi	-10.8787
mür	-10.8788
gazi	-10.879
▁üreten	-10.8791
▁kaldırıldı	-10.8791
day	-10.8793
çak	-10.8794
▁kişiyi	-10.8794
▁estonya	-10.8797
▁ortaçağ	-10.8799
rusça	-10.88
▁kullanılmış	-10.881
▁antonio	-10.8811
▁haricinde	-10.8814
▁yalan	-10.8814
gos	-10.8815
▁düzgün	-10.8822
meden	-10.8823
güney	-10.8824
▁arslan	-10.8825
ello	-10.8826
çay	-10.883
bilim	-10.8834
▁kütlesi	-10.8838
▁protokol	-10.8842
▁reaksiyon	-10.8843
▁elemanları	-10.8843
▁kadrosu	-10.8844
▁bilin	-10.8846
▁sezar	-10.8847
▁uçağın	-10.8848
luğa	-10.8848
▁sevdiği	-10.8849
▁mtv	-10.8851
alım	-10.8853
kli	-10.8854
ava	-10.8855
▁kına	-10.8857
▁tahrip	-10.8857
▁bölümünün	-10.8858
▁yaprak	-10.886
ges	-10.8864
▁sahnede	-10.8867
▁birey	-10.8868
▁özelliğini	-10.8869
▁eserlerini	-10.8869
▁işlemleri	-10.8871
▁korsan	-10.8872
▁koy	-10.8875
▁disiplin	-10.8875
▁yolunu	-10.8877
▁etkisini	-10.8881
ú	-10.8881
▁amcası	-10.8883
▁tor	-10.8884
▁kulak	-10.8887
5.000	-10.8888
leştirilmiştir	-10.8888
▁yıllara	-10.8889
▁uyku	-10.8891
▁bakanlar	-10.8892
masıyla	-10.8897
▁etmesini	-10.8897
uza	-10.8899
▁başa	-10.8902
▁saldırıları	-10.8902
▁tanımlamak	-10.8904
▁elizabeth	-10.8906
▁duyar	-10.8906
▁hareketin	-10.8906
▁pri	-10.8907
▁üstlendiği	-10.8909
▁ekmek	-10.8911
▁sıralarda	-10.8912
▁dinamik	-10.8912
▁seslendirdi	-10.8912
▁yaşı	-10.8915
▁kemeri	-10.8916
right	-10.8916
yaz	-10.8919
fl	-10.8923
▁jon	-10.8935
doğan	-10.8935
kır	-10.8941
▁kritik	-10.8943
▁oyuncuların	-10.8943
lerek	-10.8946
▁görünen	-10.8946
▁dilde	-10.8947
▁sahası	-10.8949
▁şikayet	-10.8954
▁bre	-10.8956
▁çıkmaktadır	-10.8957
▁bri	-10.8957
▁matt	-10.8957
▁yayını	-10.8959
özü	-10.896
▁türüdür	-10.896
▁payı	-10.8961
▁fındık	-10.8965
▁alışveriş	-10.8965
▁manisa	-10.8969
kop	-10.8975
cle	-10.8976
▁zırh	-10.8976
▁hücreler	-10.8978
▁farklılıklar	-10.898
▁silahlar	-10.898
▁mora	-10.8984
▁yükselti	-10.8984
▁dinsel	-10.8985
▁dede	-10.8985
▁beslenme	-10.8988
▁malatya	-10.8989
م	-10.899
▁felsefi	-10.8991
▁kullanmaktadır	-10.8993
yuki	-10.8994
ight	-10.8995
▁kategorisinde	-10.8998
▁eren	-10.9004
hr	-10.9005
▁haftalık	-10.9008
▁uzaklığı	-10.9011
▁oto	-10.9013
▁tanımlama	-10.9013
ette	-10.9015
kçe	-10.9015
ound	-10.902
leş	-10.9026
▁foto	-10.9027
▁kazak	-10.9028
▁dönmüştür	-10.9028
▁sami	-10.9028
▁koleksiyon	-10.9033
▁yetişkin	-10.9033
▁olabileceğini	-10.9036
ñ	-10.904
▁modeller	-10.904
▁ap	-10.9042
vî	-10.9044
▁çalı	-10.9049
▁darbesi	-10.9054
▁düşüncesi	-10.9059
ington	-10.906
▁harfi	-10.9062
ow	-10.9062
▁gündüz	-10.9064
ê	-10.9065
▁johnson	-10.9065
▁bale	-10.9066
▁diplomatik	-10.9066
▁başarısını	-10.9067
▁hur	-10.9071
rio	-10.9073
üz	-10.9074
leyip	-10.9074
-14	-10.9075
ι	-10.9077
▁taylor	-10.9077
▁hayran	-10.9078
▁şerif	-10.9079
▁başlayıp	-10.908
▁takdirde	-10.908
▁́	-10.9082
▁taka	-10.9086
▁uğraş	-10.9088
▁floransa	-10.9089
demir	-10.9091
▁bağlayan	-10.9091
▁birbirleriyle	-10.9092
▁belirlenen	-10.9093
▁hatları	-10.9096
▁gelişmesi	-10.9099
▁karadağ	-10.91
▁tema	-10.9102
▁anısına	-10.9103
▁amasya	-10.9103
▁1905	-10.9104
▁ticareti	-10.9107
▁şartları	-10.9108
▁250	-10.9108
▁artı	-10.9109
daş	-10.9109
meli	-10.9112
king	-10.9115
▁mike	-10.9115
usa	-10.912
▁kenar	-10.9123
▁çarpı	-10.9123
▁gerçekleşir	-10.9124
abileceğini	-10.9128
ding	-10.9129
pha	-10.9131
▁bell	-10.9133
▁element	-10.9134
▁yazarları	-10.9134
▁öyküsü	-10.9136
▁eti	-10.914
▁sonuçta	-10.9141
▁asa	-10.9141
▁şen	-10.9142
ach	-10.9143
▁ödülüne	-10.915
▁durumdadır	-10.9151
▁kurumları	-10.9153
tip	-10.9157
▁atılan	-10.9158
ica	-10.916
▁yardımcılığı	-10.916
▁dönüşür	-10.9162
▁gerçekte	-10.9167
▁temin	-10.9171
▁koşu	-10.9173
▁yayınladığı	-10.9174
▁cinsi	-10.9176
beck	-10.9177
▁yıldızlar	-10.9178
▁psikoloji	-10.9178
▁içer	-10.9182
▁liderleri	-10.9184
ces	-10.9188
ğinde	-10.919
▁vasıtasıyla	-10.919
▁eğitimden	-10.919
▁artar	-10.9191
▁rolüyle	-10.9191
▁seçti	-10.9192
▁olunca	-10.9193
▁sağlanır	-10.9196
▁planlama	-10.9197
all	-10.9198
▁şiiri	-10.9198
▁rüzgâr	-10.9201
▁power	-10.9202
▁pc	-10.9203
▁rivayet	-10.9203
lıların	-10.9207
▁hastane	-10.921
▁yerleşmiş	-10.921
cul	-10.9214
kut	-10.9215
▁yönetilen	-10.9218
▁lav	-10.9219
▁(16	-10.9221
▁soyu	-10.9222
▁sub	-10.9225
▁çubuk	-10.9226
8'	-10.9227
▁nefret	-10.9228
▁meşe	-10.9228
▁soyut	-10.9233
▁değerlendiril	-10.9239
▁kolordu	-10.924
▁yapmayı	-10.9241
▁çağrıldı	-10.9241
sko	-10.9244
▁bağlar	-10.9247
▁ziraat	-10.9249
gua	-10.9249
▁kariyerinde	-10.925
▁egemenliği	-10.9251
λ	-10.9251
▁çömlek	-10.9251
▁tanımlanan	-10.9253
▁serdar	-10.9253
▁yöntemler	-10.9255
rdı	-10.9257
▁ayrıntılı	-10.9259
▁ihanet	-10.926
▁hassas	-10.9261
▁dis	-10.9262
▁evrim	-10.9262
▁yeğeni	-10.9272
▁herkesin	-10.9273
▁kolları	-10.9273
▁henri	-10.9274
aga	-10.9275
üp	-10.9277
▁kuşlar	-10.9278
▁numaradan	-10.9278
▁yapacak	-10.9279
▁team	-10.9281
▁güvenilir	-10.9281
ы	-10.9281
▁filme	-10.9282
▁fethi	-10.9282
▁soyundan	-10.9283
▁hor	-10.9285
▁işle	-10.9286
mad	-10.9287
▁entegre	-10.9289
▁alfred	-10.9289
▁adil	-10.929
▁kanlı	-10.9294
▁başından	-10.9294
rid	-10.9294
fra	-10.9295
▁tenis	-10.9295
▁ateşi	-10.9295
şte	-10.9301
▁yapımcılığını	-10.9301
▁tony	-10.9304
değiştirilmiştir	-10.9305
▁sahnesi	-10.9306
▁kil	-10.9307
▁davası	-10.931
▁alacağı	-10.9312
▁söyleyerek	-10.9314
▁oturum	-10.9314
▁rastgele	-10.9314
▁milano	-10.9315
▁artması	-10.9316
▁okyanusu	-10.9317
▁şarkısının	-10.9321
▁avrupalı	-10.9322
▁1928	-10.9322
▁sağladığı	-10.9326
▁üs	-10.9327
▁sancağı	-10.9327
▁süresince	-10.9329
üne	-10.9334
▁saz	-10.9334
▁stone	-10.9336
▁yetkisi	-10.9341
▁anayasası	-10.9341
▁sürdüren	-10.9341
▁sağlama	-10.9343
▁doz	-10.9343
▁kadroya	-10.9347
▁senato	-10.9349
geç	-10.9349
▁liverpool	-10.9352
▁okuyucu	-10.9352
▁tahliye	-10.9352
rp	-10.9352
▁raw	-10.9352
▁veriler	-10.936
▁bayrağı	-10.9362
kom	-10.9364
mba	-10.9365
▁charlie	-10.9366
▁araştırmacılar	-10.9367
▁büyüdü	-10.9367
▁rose	-10.9368
▁çalışmalarında	-10.9368
▁emek	-10.9368
▁ilçede	-10.937
▁görevinde	-10.9372
thi	-10.9376
▁önemini	-10.9378
▁tamamlayan	-10.9378
▁newton	-10.9378
formula	-10.9379
ğü	-10.938
▁maliye	-10.9381
▁kalem	-10.9381
▁öğrenme	-10.9382
▁nato	-10.9384
▁öğreti	-10.9387
more	-10.9388
▁belgeler	-10.9391
▁gizlice	-10.9391
▁duvarları	-10.9394
▁ülkelerinde	-10.9395
▁1989'	-10.9397
▁ilçesinin	-10.9399
yıp	-10.9399
▁izledi	-10.9401
▁batılı	-10.9404
▁yavuz	-10.9405
▁ısrar	-10.9407
▁topraklar	-10.941
▁halini	-10.941
▁kariyer	-10.9411
▁güzellik	-10.9411
▁steve	-10.9416
▁işareti	-10.9417
▁ber	-10.9419
▁sulama	-10.9419
▁ban	-10.9421
▁senfoni	-10.9425
▁temeli	-10.9431
▁şeklindedir	-10.9432
▁bağlanmıştır	-10.9432
▁yaşamıştır	-10.9434
▁1912	-10.9435
▁«	-10.9437
ebilmesi	-10.9437
▁senarist	-10.9441
▁olaydan	-10.9442
▁yarattı	-10.9442
▁sayısını	-10.9442
▁kiralık	-10.9447
pin	-10.9447
▁hükümetin	-10.9448
▁aradan	-10.9453
▁kromozom	-10.9454
▁benzeyen	-10.9455
▁national	-10.9458
abildi	-10.9459
amamıştır	-10.946
▁arzu	-10.9464
▁uygulanması	-10.9472
▁başkanlığında	-10.9473
▁açısı	-10.9475
▁sade	-10.9476
▁binalar	-10.9477
▁rusça	-10.9478
▁ortamı	-10.9478
▁pahalı	-10.948
▁dergisinin	-10.948
▁imzalanan	-10.9483
▁içe	-10.9486
bü	-10.9496
▁tablosu	-10.9496
7'	-10.9497
▁verilme	-10.9497
zlar	-10.9498
▁yapıp	-10.9498
▁sömürge	-10.9503
▁taraftarları	-10.9507
▁open	-10.9507
▁kurtarma	-10.9511
▁canlandırdı	-10.9513
▁başlı	-10.9516
▁zar	-10.9518
▁rejim	-10.9518
▁değerler	-10.952
aşk	-10.9521
▁bayan	-10.9523
▁kenarında	-10.9524
▁laboratuvar	-10.9525
metrik	-10.9526
▁eleştirmenler	-10.9527
ngilizler	-10.9527
tta	-10.9528
▁tabakası	-10.953
▁yapımcısı	-10.953
ax	-10.9531
head	-10.9531
▁dio	-10.9532
▁günün	-10.9534
▁sn	-10.9536
▁çekilmiş	-10.9538
pho	-10.9541
▁mevsim	-10.9542
▁koruyucu	-10.9543
bus	-10.9543
▁(15	-10.9544
▁ribaund	-10.9544
▁takviye	-10.9544
▁belgrad	-10.9545
▁bahseder	-10.9545
▁francisco	-10.9545
▁ettirdi	-10.9554
▁ai	-10.9557
lendirilmiştir	-10.9558
▁çalışmış	-10.9565
▁derginin	-10.9566
▁şarkıların	-10.9567
oto	-10.9567
ness	-10.9569
▁company	-10.957
▁belirtilmiştir	-10.9571
-6	-10.9572
tum	-10.9574
▁içerik	-10.9576
▁isyanı	-10.9577
▁vuruş	-10.9577
▁it	-10.9577
▁sec	-10.9581
▁hocası	-10.9589
baz	-10.9595
▁elverişli	-10.9596
▁tutuklu	-10.9596
▁mit	-10.9598
▁birine	-10.9598
▁gerçekleşmiştir	-10.9599
▁elbise	-10.96
▁bilen	-10.9601
▁istatistik	-10.9601
▁yener	-10.9601
▁river	-10.9601
miyor	-10.9603
▁sistemde	-10.9604
▁kab	-10.9612
▁ayının	-10.9613
abd	-10.9613
▁albümdeki	-10.9614
▁türkçeye	-10.9618
▁ss	-10.9619
▁part	-10.9619
▁kararlı	-10.9624
▁hd	-10.9625
▁temsilci	-10.9625
▁sığ	-10.9626
▁hükûmet	-10.9627
fen	-10.9628
▁bulunabilir	-10.9629
▁time	-10.9634
▁itiraz	-10.9635
▁alırlar	-10.9638
eği	-10.9639
▁42	-10.964
▁görünüm	-10.9642
▁akraba	-10.9644
likten	-10.9645
▁aleksandr	-10.9648
▁otorite	-10.9652
▁çekme	-10.9652
▁kaplan	-10.9652
▁çabaları	-10.9657
▁ölmesi	-10.9658
▁yaralı	-10.9661
و	-10.9661
▁gerçeği	-10.9661
▁ejderha	-10.9662
▁gönderir	-10.9664
▁kısmının	-10.9665
▁görevlendirildi	-10.9665
▁yürüyüş	-10.9665
▁muhalif	-10.9666
▁hatır	-10.9667
hor	-10.967
▁maddelerin	-10.967
sev	-10.9672
▁şeref	-10.9672
▁game	-10.9674
▁düzeltme	-10.9677
▁organları	-10.9677
▁takvim	-10.9684
▁almasına	-10.9686
yurt	-10.9686
▁suretiyle	-10.9687
▁bozulma	-10.969
▁filmlerinde	-10.969
▁yaşadıkları	-10.9693
▁havacılık	-10.9693
▁santral	-10.9697
▁tercüme	-10.9698
▁arkeoloji	-10.9698
▁mağlubiyet	-10.9701
▁bakteri	-10.9703
▁koordinat	-10.9704
▁kuzeydoğu	-10.9704
▁aileler	-10.9704
▁kel	-10.9705
pop	-10.9705
▁nefes	-10.971
▁çekimler	-10.971
▁ülkedeki	-10.9712
▁geçirmiş	-10.9713
▁belirlemek	-10.9714
▁çoban	-10.9715
▁zehir	-10.9715
▁satır	-10.9716
▁uygur	-10.9717
▁başbakanlık	-10.9717
▁comp	-10.9718
▁eklendi	-10.9718
▁bursaspor	-10.9719
▁bildirir	-10.972
▁girit	-10.972
▁euroleague	-10.9727
▁1929	-10.9727
▁yazıldı	-10.9727
amayan	-10.9732
▁strateji	-10.9734
▁sevk	-10.9735
dön	-10.9736
▁oranla	-10.9738
▁istasyon	-10.9741
cker	-10.9743
▁filmidir	-10.9745
▁babil	-10.9746
▁ova	-10.9746
wen	-10.9747
▁kızları	-10.975
▁bölümden	-10.9751
▁vize	-10.9754
indeki	-10.9755
▁yapılabilir	-10.9756
▁şampiyonluğunu	-10.9759
▁meta	-10.9761
▁sakatlık	-10.9762
▁görüşleri	-10.9762
▁gönderdiği	-10.9762
▁elendi	-10.9764
▁almıştı	-10.9765
led	-10.9768
▁kapsar	-10.9768
▁tarımsal	-10.977
▁ermeniler	-10.9773
tia	-10.9776
▁beta	-10.9776
▁romalı	-10.9777
▁ulaşma	-10.9779
▁alayı	-10.9779
ire	-10.9779
yak	-10.978
▁ayaklanması	-10.978
▁dönerek	-10.9783
lıklar	-10.9783
▁müslümanlar	-10.9784
▁sandalye	-10.9785
landırma	-10.9789
▁çocukluk	-10.9789
▁ayakkabı	-10.9793
▁wilhelm	-10.9793
▁cas	-10.9793
л	-10.9794
▁aykırı	-10.9795
nia	-10.9795
▁içerisindeki	-10.9797
▁çekmiştir	-10.9799
▁mg	-10.9801
▁olun	-10.9802
likler	-10.9804
raf	-10.9805
▁barcelona	-10.9806
▁kuzeni	-10.9806
▁çıkarmıştır	-10.9808
▁fikrini	-10.9813
-12	-10.9814
▁oğludur	-10.9814
ord	-10.9815
▁ayrım	-10.9816
rez	-10.9823
▁yolda	-10.9823
asyonu	-10.9824
▁neo	-10.983
▁cezasına	-10.9832
vu	-10.984
▁başarılar	-10.984
▁raf	-10.9842
▁malta	-10.9842
▁ilkokul	-10.9843
irler	-10.9845
▁kafkas	-10.9846
▁asur	-10.9846
gol	-10.9846
▁sahada	-10.9853
▁haç	-10.9856
eme	-10.9857
▁beraberlik	-10.9858
▁katkısı	-10.986
▁flor	-10.9861
▁times	-10.9862
▁koşullar	-10.9862
▁sürgüne	-10.9867
▁zorundadır	-10.987
▁adresi	-10.987
▁katılmaya	-10.9872
▁ceviz	-10.9873
▁()	-10.9873
▁mekke	-10.9874
▁finansal	-10.9875
▁sunulan	-10.9876
▁yönet	-10.9877
▁kam	-10.9881
yılın	-10.9882
▁iyon	-10.9883
▁türbesi	-10.9884
▁heykeli	-10.9885
kam	-10.9888
▁şirketler	-10.989
nsanlar	-10.989
▁bırakmıştır	-10.9891
▁life	-10.9898
▁yükü	-10.9903
▁maçlarda	-10.991
▁bab	-10.991
bro	-10.9911
dh	-10.9912
▁tersi	-10.9913
rep	-10.9913
▁verilebilir	-10.9914
dâ	-10.9914
▁taktik	-10.9916
▁çember	-10.9916
tasyon	-10.9918
▁harekat	-10.9919
▁grubunda	-10.992
▁ışın	-10.992
▁olmadı	-10.9921
▁umut	-10.9923
▁gözlemci	-10.9923
▁karşısına	-10.9925
▁videosu	-10.9925
▁swift	-10.9926
";	-10.9928
▁gereklidir	-10.993
▁hollywood	-10.9931
▁pasaport	-10.9935
▁grubunu	-10.9938
▁aleksios	-10.994
▁eğit	-10.9941
▁august	-10.9942
▁savunması	-10.9942
▁yapısal	-10.9942
pad	-10.9946
▁federasyon	-10.9947
ancak	-10.9948
▁boşluk	-10.9948
nız	-10.995
▁birliklerinin	-10.995
likle	-10.995
▁3-1	-10.9951
▁öngörü	-10.9953
▁bıçak	-10.9953
▁çorum	-10.9954
▁doçent	-10.9954
▁bağları	-10.9954
▁2011-12	-10.9955
mî	-10.9955
ırlar	-10.9956
▁hacmi	-10.9957
▁bizanslılar	-10.9957
▁devletinin	-10.9958
▁oluştu	-10.9959
▁mai	-10.996
adı	-10.9961
ullah	-10.9961
stor	-10.9962
▁usulü	-10.9963
▁teoremi	-10.9966
▁geliş	-10.9966
▁oxford	-10.9967
▁öldürmek	-10.9967
▁yaygındır	-10.9968
▁ümit	-10.9968
▁keçi	-10.9969
▁kusur	-10.9969
▁öldürdü	-10.9974
▁sahiptirler	-10.9976
oyun	-10.9976
▁platin	-10.9977
smi	-10.9977
▁çıkmak	-10.9977
▁dünyası	-10.9978
▁etken	-10.9978
▁that	-10.998
phi	-10.9982
▁kaynaklı	-10.9983
_4	-10.9985
▁mont	-10.9985
▁day	-10.9987
▁phone	-10.9988
▁yaşan	-10.9988
▁yakaladı	-10.9989
▁duygusal	-10.9989
▁denklemi	-10.999
▁tutum	-10.9993
▁nuri	-10.9996
ato	-10.9997
▁yetenekli	-10.9998
▁basıncı	-11
▁kro	-11.0001
▁döneminden	-11.0002
▁einstein	-11.0003
▁maçlarında	-11.0003
ildiği	-11.0004
▁savaşında	-11.0005
▁şövalye	-11.0006
▁university	-11.0007
▁manastırı	-11.0007
sit	-11.0009
lerce	-11.0009
▁band	-11.0009
▁örtü	-11.0009
▁oluşuyordu	-11.0009
▁düşünülen	-11.001
etti	-11.0012
▁çaplı	-11.0013
put	-11.0013
▁kesiminde	-11.0014
râ	-11.002
yıldız	-11.0023
▁güne	-11.0027
▁anlatım	-11.0028
):	-11.0029
yip	-11.003
▁ertuğrul	-11.0034
▁yaratma	-11.0036
▁deyişle	-11.0038
▁kardeşleri	-11.0038
▁1908	-11.0038
▁olmaktan	-11.0041
▁şirketinin	-11.0043
▁kadir	-11.0045
▁adada	-11.0046
▁bülent	-11.0048
▁gençlerbirliği	-11.0048
fik	-11.0049
▁turunda	-11.005
ug	-11.005
▁dönüşü	-11.005
ografi	-11.0051
▁geliştirmek	-11.0053
▁konsey	-11.0058
▁gaziantep	-11.006
▁ekledi	-11.0062
▁sibirya	-11.0062
▁mermi	-11.0062
▁oluşturulmuş	-11.0064
yeceğini	-11.0065
▁eklenmiştir	-11.0067
▁arşiv	-11.0069
▁luc	-11.0072
▁görevde	-11.0073
metre	-11.0075
▁seven	-11.0075
▁gösterim	-11.0075
▁vladimir	-11.0075
▁çıplak	-11.0075
▁cur	-11.0077
▁tasarlanmıştır	-11.008
pik	-11.008
▁halı	-11.008
▁geminin	-11.0083
▁hill	-11.0085
▁konstantin	-11.0087
smet	-11.0089
▁anlatılır	-11.0089
▁eşdeğer	-11.0089
▁eric	-11.009
▁boyutu	-11.009
vat	-11.0091
▁fırın	-11.0092
nam	-11.0093
▁sürücü	-11.0093
▁almayı	-11.0093
▁çıkarır	-11.0096
▁önderliğinde	-11.0098
▁kaybetmiş	-11.0099
▁gündeme	-11.0103
cl	-11.0104
▁kullanıcının	-11.0104
ure	-11.0104
▁kesimi	-11.0105
▁askerlerin	-11.0106
▁bölümüne	-11.0106
tun	-11.0107
▁sürülen	-11.0107
▁yuvarlak	-11.0109
▁işlevi	-11.011
şen	-11.0113
lov	-11.0116
▁dokuzuncu	-11.0116
▁enfeksiyon	-11.0116
▁refah	-11.0117
▁gelişi	-11.0117
▁emil	-11.0118
▁satışı	-11.0119
▁ışığı	-11.0119
án	-11.0121
▁hakan	-11.0122
▁olmuşlardır	-11.0123
▁kom	-11.0124
liğinin	-11.0125
▁güneybatı	-11.0127
▁ucuz	-11.0129
▁etrafındaki	-11.0129
tter	-11.013
▁tara	-11.0131
▁yöneticileri	-11.0133
▁tersine	-11.0136
pur	-11.0137
▁aşiret	-11.0137
▁listede	-11.0137
▁protokolü	-11.014
▁atma	-11.014
▁prensi	-11.0141
▁olasılığı	-11.0142
▁sound	-11.0143
▁rahip	-11.0144
▁takiben	-11.0144
▁çalışmalarının	-11.0145
▁yaptıktan	-11.0149
▁dönüştü	-11.0149
hop	-11.0149
▁senaryosunu	-11.0159
▁yaklaşımı	-11.0161
gir	-11.0162
naz	-11.0163
▁eksikliği	-11.0166
▁izni	-11.0167
▁600	-11.0167
▁güncelleme	-11.0168
▁alıyor	-11.017
▁endüstriyel	-11.0171
bach	-11.0173
idi	-11.0174
▁sürece	-11.0175
▁bağımlı	-11.0177
▁hazırlanmış	-11.0182
lköğretim	-11.0185
▁matris	-11.0186
▁savaşçı	-11.0186
▁melek	-11.0188
▁geçidi	-11.0189
emeyen	-11.019
dılar	-11.019
▁tünel	-11.0191
chen	-11.0192
yl	-11.0195
zy	-11.0195
tüm	-11.02
▁sonuçlanan	-11.0202
▁sendika	-11.0202
▁bürosu	-11.0206
leşir	-11.0209
▁tabanı	-11.0211
▁seçkin	-11.0211
▁şov	-11.0212
▁peş	-11.0218
▁kompleksi	-11.022
▁sağlanması	-11.0221
▁şeklindeki	-11.0222
▁vilayeti	-11.0222
eva	-11.0222
▁yaptığını	-11.0223
▁tümü	-11.0224
▁kova	-11.0226
uma	-11.0226
▁konuşulan	-11.0226
▁küp	-11.0226
▁olmasıyla	-11.0226
▁uyan	-11.0226
▁biçimleri	-11.0227
▁düzeyi	-11.0229
▁fazladır	-11.0229
▁gemileri	-11.0229
▁kaynaklanan	-11.023
▁juan	-11.023
▁aldıktan	-11.0235
▁1932	-11.0239
▁bulduğu	-11.0239
▁jun	-11.024
gerçekleştirdiği	-11.0241
lâh	-11.0241
▁kapan	-11.0242
▁kasabası	-11.0245
bağ	-11.0248
▁hafıza	-11.0248
hon	-11.025
▁resimler	-11.0251
▁puanı	-11.0252
▁edilmesini	-11.0253
▁maçını	-11.0255
▁gününde	-11.0257
▁ihtimali	-11.026
▁rüya	-11.0263
▁65	-11.0264
laşır	-11.0265
▁oluşumu	-11.0265
▁ailesine	-11.0265
▁sermaye	-11.0268
▁mekaniği	-11.0272
ika	-11.0278
▁görül	-11.0281
rarlanılmaktadır	-11.0282
beş	-11.0282
biz	-11.0282
▁noktalar	-11.0284
▁sin	-11.0284
▁başlık	-11.0284
▁tok	-11.0287
6'	-11.029
▁etkinlikleri	-11.0291
▁romanın	-11.0295
ala	-11.0296
▁sosyoloji	-11.0296
▁liga	-11.0296
▁duyuruldu	-11.0299
-21	-11.0299
kuzey	-11.03
▁şekildedir	-11.0304
atlar	-11.0305
gerçek	-11.0306
▁sığın	-11.0308
▁cadde	-11.0309
▁hamle	-11.031
▁lincoln	-11.031
▁hans	-11.031
▁caminin	-11.0312
▁yönetimine	-11.0317
ier	-11.0318
lıkları	-11.0318
▁geçirir	-11.0318
▁pr	-11.0323
▁college	-11.0324
▁protestan	-11.0324
▁holding	-11.0324
▁değişmez	-11.0324
arya	-11.0327
▁tetik	-11.0327
▁ob	-11.0331
▁vampir	-11.0332
atör	-11.0333
▁cerrahi	-11.0334
▁salgı	-11.0336
▁iniş	-11.0336
▁koalisyon	-11.0337
▁helikopter	-11.0338
▁lumia	-11.0338
▁temelini	-11.0339
▁sigara	-11.0339
▁kate	-11.034
▁garip	-11.034
▁propaganda	-11.0342
▁tab	-11.0343
▁vii	-11.0344
-0	-11.0346
nönü	-11.0346
▁kaplama	-11.0346
▁pazarlama	-11.0348
▁dol	-11.0349
▁tarzında	-11.0349
▁kurumlar	-11.0349
▁talebi	-11.035
▁belirlenmesi	-11.035
mun	-11.0352
▁taarruzu	-11.0354
▁günah	-11.0355
▁bitiren	-11.0356
▁davranışları	-11.036
▁wil	-11.0361
▁performansını	-11.0361
tho	-11.0361
▁etmez	-11.0363
▁bru	-11.0364
▁görüşmeler	-11.0365
▁fırat	-11.0366
lemek	-11.0367
▁kupayı	-11.0368
▁kaçan	-11.0369
▁taşıdığı	-11.0369
▁dayanıklı	-11.037
diğer	-11.037
▁hamur	-11.0371
▁şehirleri	-11.0373
▁berk	-11.0375
▁devrinde	-11.0375
abildiği	-11.0376
.""	-11.0377
▁network	-11.0377
▁iktidarı	-11.0378
▁köln	-11.038
lia	-11.0382
▁yolla	-11.0382
▁nem	-11.0382
▁kurtarmak	-11.0386
▁felaket	-11.0388
▁rütbesi	-11.039
▁giz	-11.039
▁zevk	-11.039
▁imparatoru	-11.039
▁vakıf	-11.039
▁inancı	-11.0392
▁meryem	-11.0394
leyebilir	-11.0397
▁fizikçi	-11.0397
▁adaya	-11.0398
▁seti	-11.0399
▁astronomi	-11.0402
▁projeleri	-11.0402
▁berabere	-11.0405
anti	-11.0406
▁tekne	-11.0406
▁eyaletinin	-11.0407
▁programlar	-11.0414
▁kalarak	-11.0415
▁hiper	-11.0416
▁santa	-11.0418
▁kurarak	-11.0419
vaz	-11.042
▁yükseklikte	-11.0422
▁aksi	-11.0423
▁poe	-11.0425
▁alırken	-11.0428
▁3-0	-11.0428
▁%1	-11.043
pot	-11.0431
▁vas	-11.0431
▁hükümetinin	-11.0432
atif	-11.0433
à	-11.0436
▁sohbet	-11.0436
▁savundu	-11.0437
▁alanının	-11.0437
▁soyadı	-11.0439
▁kes	-11.0441
▁mirası	-11.0441
▁kesinlikle	-11.0442
▁seç	-11.0448
▁willow	-11.0451
sul	-11.0454
maları	-11.0456
▁türün	-11.0459
▁bekleme	-11.0459
▁selçuk	-11.046
▁zamanki	-11.0463
▁çan	-11.0463
▁topraklarının	-11.0463
▁jet	-11.0467
▁imkânı	-11.0468
▁sara	-11.047
▁cap	-11.047
▁akın	-11.0471
▁sipariş	-11.0471
▁cumhuriyetçi	-11.0473
▁gelince	-11.0473
▁hiro	-11.0473
▁komutasında	-11.0474
▁giyme	-11.0475
▁cho	-11.0478
▁dostu	-11.048
▁kadını	-11.0481
▁deve	-11.0485
kadın	-11.0486
▁derleme	-11.0487
▁white	-11.0489
▁mensupları	-11.0489
▁denizli	-11.0491
▁miller	-11.0492
▁ozan	-11.0493
▁mad	-11.0496
▁gerektirir	-11.0497
▁tarla	-11.0498
▁tanrıça	-11.0498
м	-11.0498
nat	-11.0498
▁başlarlar	-11.0499
▁genişliği	-11.0501
gas	-11.0501
▁mevkiinde	-11.0504
▁sakarya	-11.0506
▁turan	-11.0506
▁stephen	-11.0507
▁yetki	-11.0507
▁başar	-11.0509
▁hanedan	-11.0509
▁pierre	-11.0509
▁açısal	-11.0511
▁sergiledi	-11.0513
▁fan	-11.0513
▁yoluna	-11.0515
▁politikaları	-11.0515
▁seks	-11.0516
▁baron	-11.0518
▁sayısız	-11.0518
▁yaptılar	-11.0518
▁ash	-11.052
▁izleme	-11.0521
ys	-11.0522
▁ülkesinin	-11.0524
hâ	-11.0525
▁çoğunu	-11.0529
▁out	-11.0533
▁uşak	-11.0536
▁dostluk	-11.0537
▁bastır	-11.0538
▁komisyon	-11.0538
▁dedesi	-11.054
▁yüksektir	-11.0544
▁muh	-11.0544
▁mahallesinde	-11.0545
last	-11.0545
slami	-11.055
▁şekilleri	-11.0551
çö	-11.0553
▁yavru	-11.0556
istik	-11.0557
▁koku	-11.0557
▁şirketleri	-11.056
▁akarsu	-11.0562
pt	-11.0563
й	-11.0564
▁group	-11.0565
▁gösterilebilir	-11.0565
▁materyal	-11.0566
▁karşılaşır	-11.0566
nâ	-11.0567
rey	-11.0571
▁raporu	-11.0576
meyen	-11.0577
▁2010-11	-11.058
▁olanağı	-11.058
▁volkanik	-11.0582
▁1913	-11.0584
▁39	-11.0584
▁gemiler	-11.0584
▁kompleks	-11.0585
▁arda	-11.0589
arapça	-11.0589
müz	-11.0589
▁üvey	-11.0593
▁kazanılan	-11.0594
klarında	-11.0594
▁toplar	-11.0597
▁şunları	-11.0599
▁yaylası	-11.0599
▁azalma	-11.0599
▁hun	-11.0601
▁anlar	-11.0602
gul	-11.0603
▁karma	-11.0605
▁almanyası	-11.0607
▁uzmanı	-11.0608
▁gözaltın	-11.0609
▁yayılan	-11.0609
▁çekilme	-11.0611
oviç	-11.0612
▁kapasite	-11.0614
▁denetimi	-11.0615
hri	-11.0615
▁http	-11.0615
▁gökçe	-11.0615
▁who	-11.0617
▁konusundaki	-11.0617
▁gözleri	-11.0621
ışını	-11.0621
▁düşünme	-11.0624
▁işlev	-11.0624
▁şampiyona	-11.0627
▁belirten	-11.063
yerek	-11.063
▁hel	-11.0631
▁valiliği	-11.0633
halk	-11.0633
enko	-11.0639
▁gözden	-11.0639
tâ	-11.064
▁ulaşmak	-11.0641
▁topraklarını	-11.0641
▁cenazesi	-11.0642
▁kuralı	-11.0645
▁durumunu	-11.0645
▁ofisi	-11.0646
▁ameliyat	-11.0646
▁oğlunun	-11.0647
▁itiraf	-11.065
▁boston	-11.0652
ston	-11.0654
izasyon	-11.0656
hai	-11.0657
osmanlı	-11.0661
▁araştır	-11.0667
▁barındıran	-11.0668
▁ring	-11.0669
▁yukarıdaki	-11.0669
▁radio	-11.0669
ağın	-11.0671
▁domuz	-11.0672
▁milan	-11.0673
▁şok	-11.0676
▁verilerine	-11.0679
ε	-11.0679
▁yoksul	-11.0679
▁prenses	-11.068
▁arthur	-11.068
heim	-11.0682
è	-11.0683
▁tahıl	-11.0684
▁sentez	-11.0685
ob	-11.0687
▁cennet	-11.0691
▁tohum	-11.0692
▁böbrek	-11.0694
▁edin	-11.0694
▁oluşturmuştur	-11.0694
suna	-11.0695
▁korudu	-11.0696
sik	-11.0697
▁romantik	-11.0699
▁1931	-11.0701
▁75	-11.0701
▁mantık	-11.0703
▁tutmak	-11.0703
▁evliliği	-11.0704
stro	-11.0704
▁sezonunu	-11.0705
▁azdır	-11.0707
▁peru	-11.0708
▁sesli	-11.071
▁farkında	-11.071
▁sitesinde	-11.0711
▁eksik	-11.0713
▁kurmay	-11.0715
▁got	-11.0715
yacağını	-11.0715
▁simge	-11.0717
mark	-11.0717
had	-11.0718
skoç	-11.0721
▁yazılır	-11.0723
▁tanındı	-11.0726
▁maliyeti	-11.0728
yacak	-11.0728
▁kartı	-11.0728
▁evler	-11.0729
▁walter	-11.0734
▁yararlı	-11.0737
▁elli	-11.0737
▁turgut	-11.0738
▁forvet	-11.0739
▁kurdular	-11.0739
▁yemekler	-11.074
dışı	-11.0741
▁mobile	-11.0741
▁çoğal	-11.0741
▁www	-11.0742
sır	-11.0743
▁teknikleri	-11.0744
▁moğollar	-11.0744
▁tura	-11.0747
▁durma	-11.0747
ağaç	-11.0747
▁hav	-11.0748
▁akça	-11.0748
▁dinî	-11.075
▁makam	-11.0751
▁pkk	-11.0752
▁karakterleri	-11.0752
▁anlamıyla	-11.0753
▁tokyo	-11.0753
▁hesabı	-11.0753
▁kapat	-11.0753
▁üçgen	-11.0754
▁silindir	-11.0755
▁modu	-11.0757
▁geçirmiştir	-11.0758
▁mau	-11.0758
300	-11.0759
tarak	-11.076
▁kullanıma	-11.0761
leştirmek	-11.0762
his	-11.0763
▁bou	-11.0764
▁renkleri	-11.0764
▁hamam	-11.0766
▁göğüs	-11.0767
▁görevlerini	-11.0767
▁god	-11.0767
▁dokun	-11.0768
▁(5	-11.0772
▁geçmeden	-11.0772
▁tanıt	-11.0774
▁teklisi	-11.0775
ρ	-11.0776
▁saldırılar	-11.0779
▁1-1	-11.0779
▁renkler	-11.078
▁ağaçları	-11.078
▁sergisi	-11.0781
▁kalitesi	-11.0781
▁vahşi	-11.0781
▁düşünülür	-11.0782
▁vakit	-11.0782
▁kayıtlı	-11.0783
▁tecrübe	-11.0783
▁papaz	-11.0785
▁harekât	-11.0786
▁fare	-11.0786
vah	-11.0787
▁uzanır	-11.079
▁çayır	-11.0793
âm	-11.0794
rul	-11.0794
▁yüce	-11.0796
▁yayıncı	-11.0797
▁oynamaktadır	-11.0797
▁oluşturulmuştur	-11.0798
▁kurumsal	-11.0801
▁bağlanır	-11.0802
▁problemi	-11.0802
hel	-11.0804
▁beyan	-11.0804
lyn	-11.0809
▁götürür	-11.081
fre	-11.0811
ttihat	-11.0811
▁cumhuriyetin	-11.0811
▁araştırmacı	-11.0814
▁victoria	-11.0816
▁yönü	-11.0817
hm	-11.0819
▁arif	-11.0821
▁teşkilat	-11.0821
▁malzemeler	-11.0822
▁uygulanır	-11.0822
▁süs	-11.0822
▁aran	-11.0823
▁statü	-11.0825
▁bakıldığında	-11.0826
âl	-11.0826
bia	-11.0826
ator	-11.0829
▁kendileri	-11.0829
ilebilir	-11.083
rag	-11.083
▁server	-11.0834
glu	-11.0835
mizin	-11.0835
▁kullanması	-11.0836
leştirilmesi	-11.084
hiro	-11.0841
▁ödüller	-11.0844
▁düzensiz	-11.0846
▁uyma	-11.0846
▁getirme	-11.0848
▁statüsü	-11.0849
▁derinlik	-11.0849
▁mori	-11.0849
▁koru	-11.0849
▁göster	-11.085
▁sürmektedir	-11.085
▁bize	-11.0851
▁mücadelesi	-11.0856
▁yıllardan	-11.0857
▁zirve	-11.0858
şık	-11.0859
▁adamın	-11.086
▁duman	-11.086
▁aldığını	-11.0861
▁oraya	-11.0862
▁azınlık	-11.0863
umu	-11.0864
▁başaran	-11.0865
▁edilmesine	-11.0866
▁mayın	-11.0867
▁yaban	-11.0869
-8	-11.087
iyeti	-11.0871
ović	-11.0872
▁nişanı	-11.0877
▁denizden	-11.0879
dt	-11.088
laşan	-11.088
▁bulundukları	-11.0881
▁aksu	-11.0882
▁uzan	-11.0883
▁çevrili	-11.0884
▁48	-11.0884
▁olamadı	-11.0891
▁sanatları	-11.0892
cum	-11.0898
lkokulu	-11.0901
▁diz	-11.0902
lamaya	-11.0902
400	-11.0903
▁bart	-11.0903
3)	-11.0904
kah	-11.0907
▁11'	-11.0908
▁françois	-11.091
▁fırsatı	-11.091
▁üret	-11.091
ayet	-11.091
▁momentum	-11.0912
▁meşru	-11.0914
▁hitap	-11.0915
▁che	-11.0915
hur	-11.0916
▁damat	-11.0919
▁yatay	-11.092
▁gerçekçi	-11.0922
▁rolünde	-11.0924
▁klinik	-11.0927
amin	-11.0928
oğlan	-11.0931
▁ağzı	-11.0932
▁kentte	-11.0932
▁ivme	-11.0933
▁düzenlenmiştir	-11.0933
▁doğrulama	-11.0933
▁taşıyıcı	-11.0934
▁aşaması	-11.0936
▁sudan	-11.0938
▁hap	-11.0939
▁algoritma	-11.0941
▁seramik	-11.0944
▁fun	-11.0945
▁sony	-11.0947
▁adalar	-11.0948
▁sığır	-11.0948
▁yüzme	-11.0948
▁wal	-11.0949
zey	-11.095
▁kaçar	-11.095
▁mana	-11.095
mara	-11.0953
▁geçirme	-11.0953
ib	-11.0954
ndi	-11.0954
söz	-11.0955
▁uzayı	-11.0955
hit	-11.0957
num	-11.0959
▁manzara	-11.096
▁oluyor	-11.096
▁desteğiyle	-11.0961
▁buluş	-11.0962
▁online	-11.0964
▁planları	-11.0965
▁sözlü	-11.0966
▁geçirildi	-11.0967
▁(10	-11.0971
ن	-11.0973
▁akışkan	-11.0976
▁house	-11.0976
our	-11.0977
fr	-11.0977
ball	-11.098
▁durumlar	-11.098
▁yapıların	-11.0981
▁konağı	-11.0982
9'	-11.0982
▁bölgeden	-11.0983
dd	-11.0986
▁duygu	-11.0986
dog	-11.0986
▁ayrılıp	-11.0989
▁yönünden	-11.099
tma	-11.099
genç	-11.0991
▁kemerini	-11.0993
▁babasını	-11.0995
lüğe	-11.0995
▁hamile	-11.0999
▁karakterlerin	-11.1001
bos	-11.1001
dev	-11.1003
▁yayınlanması	-11.1004
▁vurma	-11.1007
▁tesisi	-11.1008
▁mülk	-11.1012
ruk	-11.1012
▁55	-11.1012
▁yık	-11.1013
▁gelişmiştir	-11.1015
▁boynu	-11.1017
▁muhafız	-11.1022
▁özgürlüğü	-11.1023
▁içki	-11.1024
▁tezi	-11.1025
▁çalışmalara	-11.1025
▁sahasında	-11.1029
▁sahipleri	-11.1031
aynı	-11.1033
▁tahsis	-11.1033
nori	-11.1034
mah	-11.1034
▁muhtar	-11.1035
▁1907	-11.1036
▁kaliteli	-11.1036
▁planlanan	-11.1037
lir	-11.104
▁desen	-11.104
▁memuru	-11.1042
▁app	-11.1042
▁figür	-11.1042
▁makina	-11.1047
▁hakimiyeti	-11.1047
ett	-11.1047
▁yenildi	-11.105
▁giderken	-11.1052
▁mektubu	-11.1052
mizde	-11.1053
▁inşaatı	-11.1054
▁tümüyle	-11.1054
▁taht	-11.1055
yüz	-11.1059
ise	-11.1061
▁hükümdarlığı	-11.1062
▁yazları	-11.1064
▁yayınlanmış	-11.1064
▁köyünün	-11.1064
▁otto	-11.1064
▁eserlerinde	-11.1065
letişim	-11.1065
him	-11.1066
▁44	-11.1067
▁şişe	-11.107
ell	-11.107
▁kullanılma	-11.1072
bâ	-11.1072
▁ölümünün	-11.1073
▁fra	-11.1074
▁tüccar	-11.1076
▁nihayet	-11.1077
▁noktasında	-11.1077
ë	-11.1078
▁vazgeç	-11.1079
▁tarafına	-11.1079
▁aktar	-11.1081
cisi	-11.1081
▁sunmaktadır	-11.1085
▁artışı	-11.1087
adam	-11.1088
madı	-11.1089
▁örgütün	-11.1089
▁olgun	-11.1092
▁from	-11.1093
▁sürülmüştür	-11.1093
get	-11.1094
▁kasabasında	-11.1094
▁verirler	-11.1095
▁üreticisi	-11.1095
▁kurgusal	-11.1097
▁dönüm	-11.1099
▁almanlar	-11.1101
▁etmesine	-11.1102
▁yöneldi	-11.1104
yy	-11.1104
▁rakam	-11.1105
▁birincil	-11.1107
▁nitekim	-11.1109
▁sunulmuştur	-11.1109
▁bütçe	-11.111
pres	-11.111
belirtilmektedir	-11.111
▁tapınağı	-11.111
▁konusudur	-11.1111
▁adnan	-11.1111
▁gelirler	-11.1112
▁bayramı	-11.1113
▁hâ	-11.1115
pos	-11.1115
fan	-11.1119
▁engin	-11.1119
▁programda	-11.1122
▁çıkmasına	-11.1122
ž	-11.1123
▁ihraç	-11.1123
▁guy	-11.1126
▁moleküler	-11.1128
1)	-11.1134
kos	-11.1134
▁okun	-11.1135
▁tahttan	-11.1136
▁sektöründe	-11.1137
lması	-11.1137
light	-11.1138
▁kampanyası	-11.1139
▁cüce	-11.1142
▁hücreleri	-11.1142
gram	-11.1143
hak	-11.1144
▁yapısını	-11.1144
▁öneri	-11.1148
stru	-11.1149
inus	-11.1151
yıl	-11.1152
branice	-11.1155
▁efes	-11.1156
▁yetenekleri	-11.1157
▁kaynaklara	-11.1158
▁burs	-11.1159
▁ardı	-11.1159
▁öğretmenliği	-11.116
▁karşılaşmada	-11.1163
▁bağlandı	-11.1165
▁kurtul	-11.1165
sper	-11.1167
▁kalmayı	-11.1168
hic	-11.1169
▁akan	-11.1169
▁restoran	-11.1169
▁antakya	-11.1169
▁zinciri	-11.117
▁gelecekte	-11.117
dîn	-11.1171
▁planda	-11.1173
nşaat	-11.1176
sındaki	-11.1176
▁laboratuvarı	-11.1176
▁ettikten	-11.1182
rap	-11.1186
▁yörük	-11.1187
▁kızın	-11.1191
▁dağıtımı	-11.1192
▁gam	-11.1194
▁şiirler	-11.1197
▁rekoru	-11.1199
ī	-11.1199
▁göçebe	-11.12
▁edi	-11.1201
cor	-11.1204
▁çıkarılmıştır	-11.1204
▁hizmetler	-11.1205
▁öğretmenlik	-11.1206
▁ürünlerin	-11.1208
fâ	-11.1208
▁parçacıklar	-11.1209
▁yerleşmiştir	-11.1211
▁yüzyıllarda	-11.1212
▁kaybetme	-11.1213
▁bad	-11.1214
cısı	-11.1216
▁1906	-11.1217
amadığı	-11.1218
▁tarafta	-11.1218
▁mekanizma	-11.1218
mic	-11.122
▁katliam	-11.1222
▁ilgilidir	-11.1226
▁verecek	-11.1227
▁fri	-11.1231
▁mantar	-11.1231
▁şartlar	-11.1232
▁rekorunu	-11.1233
▁harbi	-11.1233
▁engellemek	-11.1233
▁kıyılarında	-11.1234
▁günden	-11.1235
bili	-11.1235
▁mili	-11.1241
▁def	-11.1241
▁bush	-11.1242
▁yükleme	-11.1242
laşması	-11.1243
▁yerçekimi	-11.1245
▁tüketici	-11.1246
ışı	-11.1246
▁görevler	-11.1246
▁sümer	-11.1247
▁yayınevi	-11.1249
vers	-11.125
andro	-11.125
▁formülü	-11.1253
▁oluştuğu	-11.1254
▁balığı	-11.1254
gp	-11.1255
ettin	-11.1255
▁seviyesinde	-11.1256
▁getirilmiş	-11.1258
▁ömür	-11.1261
▁mesleği	-11.1261
▁elemanı	-11.1268
▁kuruluşları	-11.1269
zü	-11.127
▁turnuvaya	-11.1271
side	-11.1274
▁mekanizması	-11.1274
▁güneye	-11.1274
▁kaybeder	-11.1275
▁terakki	-11.1276
▁yetkili	-11.1276
▁tunus	-11.1277
▁kendinden	-11.1278
▁yüzbaşı	-11.1279
▁xi	-11.1279
▁up	-11.1282
▁bulunduğunu	-11.1282
▁bm	-11.1283
▁karşıyaka	-11.1286
▁ölçüm	-11.1288
▁ölmüş	-11.1288
▁sağlayacak	-11.129
she	-11.129
▁horasan	-11.1292
▁bot	-11.1294
kt	-11.1294
▁hayatında	-11.1297
cen	-11.1298
▁bakımdan	-11.1299
▁bolşevik	-11.1301
▁sokul	-11.1301
▁tartışmalar	-11.1302
ous	-11.1302
▁oranları	-11.1303
bad	-11.1303
▁atlas	-11.1303
şam	-11.1306
▁parçasıdır	-11.1307
lemesi	-11.1307
▁müziğe	-11.1307
▁christian	-11.1307
▁açılır	-11.1308
melidir	-11.131
("	-11.131
gat	-11.1311
▁roger	-11.1313
▁şehirlerde	-11.1314
▁ülkesine	-11.1314
sıra	-11.1315
▁cadı	-11.1315
č	-11.1317
▁dead	-11.1318
▁öteki	-11.132
▁rad	-11.1321
▁twitter	-11.1322
▁otur	-11.1323
▁seçilir	-11.1323
▁öncülük	-11.1328
▁sisteme	-11.1329
▁lazer	-11.1331
▁sağlıklı	-11.1331
▁edilmişti	-11.1333
▁kartaca	-11.1337
▁jacob	-11.1338
▁mesela	-11.1339
▁düşmanı	-11.134
ndedir	-11.1341
▁şehrine	-11.1343
▁kayda	-11.1345
şleri	-11.1345
▁kariyerini	-11.1346
▁döndükten	-11.1347
▁heyet	-11.1348
▁hastalıkları	-11.1348
ل	-11.1353
cio	-11.1353
▁görüşler	-11.1355
▁seslendirdiği	-11.1357
zmit	-11.1358
▁karakterin	-11.136
▁grupların	-11.1362
shire	-11.1363
▁içerdiği	-11.1364
▁sorar	-11.1365
law	-11.1367
lenmeye	-11.1367
▁nil	-11.1367
▁döngü	-11.1368
▁baştan	-11.1368
▁ahlak	-11.1371
▁geliştiril	-11.1372
▁doğmuş	-11.1373
▁detaylı	-11.1375
vas	-11.1375
▁destekler	-11.1376
▁tamamladıktan	-11.1378
▁görüntüler	-11.1381
▁destan	-11.1382
lanacak	-11.1384
feld	-11.1384
▁okulları	-11.1384
▁ender	-11.1385
▁çetin	-11.1385
▁hell	-11.1386
iler	-11.1387
meleri	-11.1387
▁olacaktı	-11.139
▁takdir	-11.139
▁üniversitede	-11.1393
▁selçuklular	-11.1395
▁cismin	-11.1398
▁ihlal	-11.1398
π	-11.14
▁mezopotamya	-11.14
▁muğla	-11.14
▁haçlılar	-11.14
▁radyosu	-11.1401
▁göstererek	-11.1401
г	-11.1402
▁carlos	-11.1404
▁pl	-11.1404
▁sunucusu	-11.1405
▁ford	-11.1407
▁prensibi	-11.1409
▁noel	-11.141
▁intikam	-11.1412
▁alanındaki	-11.1416
pra	-11.1419
▁belirlenir	-11.1419
▁eşittir	-11.1427
kça	-11.1427
lion	-11.1428
▁iphone	-11.143
▁satranç	-11.1431
▁adolf	-11.1431
▁(4	-11.1431
▁hamburg	-11.1432
keş	-11.1432
▁rastlanır	-11.1436
▁gro	-11.1436
hos	-11.1436
isti	-11.1439
▁çıkarmak	-11.1439
▁eu	-11.144
gis	-11.1441
▁duyma	-11.1444
▁röportajda	-11.1444
rk	-11.1445
ა	-11.1447
▁üsküdar	-11.1447
▁iskan	-11.1447
д	-11.1448
▁düzenlenmesi	-11.1456
▁sağlan	-11.1457
abilme	-11.1458
▁celal	-11.1459
erler	-11.1459
▁arabası	-11.1461
▁feminist	-11.1462
▁1988'	-11.1463
ncil	-11.1466
▁ste	-11.1467
▁mason	-11.1467
▁sınıflandırma	-11.1469
rasyon	-11.147
▁eserlerinin	-11.1473
▁olgu	-11.1476
▁yem	-11.1476
cola	-11.1476
▁tüp	-11.1477
vic	-11.1479
pl	-11.148
▁eylemleri	-11.1481
▁gitmiş	-11.1483
▁bilet	-11.1483
▁değirmen	-11.1484
▁aynıdır	-11.1484
▁sayısında	-11.1488
zim	-11.1489
▁cihazları	-11.1489
kha	-11.149
▁yapısına	-11.1491
▁çavuş	-11.1493
▁dokuma	-11.1493
thr	-11.1495
▁araplar	-11.1495
▁artvin	-11.1496
▁1904	-11.1497
▁daima	-11.1501
▁akademisyen	-11.1504
klar	-11.1505
oksi	-11.1505
▁leo	-11.1507
▁foton	-11.1509
▁tasavvuf	-11.1509
▁toprağa	-11.1509
▁tarihini	-11.1511
oma	-11.1511
▁kıyafet	-11.1512
dro	-11.1513
▁rab	-11.1513
shak	-11.1514
▁ailesiyle	-11.1515
lou	-11.1516
sz	-11.1516
▁giderler	-11.1516
▁oynamış	-11.152
lah	-11.1523
▁nice	-11.1524
▁duyan	-11.1524
▁dünyayı	-11.1525
altın	-11.1526
▁alevi	-11.1526
▁eleman	-11.1526
▁oynanmıştır	-11.1527
▁kop	-11.1529
▁süredir	-11.153
▁bölünme	-11.1533
▁oturan	-11.1534
▁sad	-11.1535
▁hayvanları	-11.1537
lig	-11.1538
▁uğrat	-11.1538
andre	-11.154
pac	-11.154
′	-11.1541
▁nerede	-11.1542
▁alfabe	-11.1542
▁ateşkes	-11.1543
günümüzde	-11.1543
yazar	-11.1544
▁sanatsal	-11.1548
▁boyları	-11.1548
mize	-11.1549
▁sit	-11.1549
▁görüntüleri	-11.1551
▁nöro	-11.1554
▁körfez	-11.1554
▁kalk	-11.1554
▁amiral	-11.1554
memiş	-11.1555
▁uzatma	-11.1557
matik	-11.1558
▁€	-11.1558
işi	-11.156
grad	-11.156
hard	-11.1565
▁ayşe	-11.1567
▁göstermiş	-11.1567
▁okulunda	-11.1567
▁açılmış	-11.1571
▁kuyu	-11.1572
▁karakteristik	-11.1573
▁wilson	-11.1575
ememiştir	-11.1575
▁noktasına	-11.1576
▁american	-11.1579
▁yapabilir	-11.1581
▁kuşu	-11.1581
ydü	-11.1582
sindeki	-11.1587
▁kü	-11.1588
▁geliyor	-11.1589
▁high	-11.1593
▁sözlerini	-11.1594
▁gitmesi	-11.1594
▁açıklaması	-11.1595
▁cesaret	-11.1595
▁bekir	-11.1596
▁fosil	-11.1596
▁fran	-11.1597
▁sürdüğü	-11.1598
▁tev	-11.16
▁mutfak	-11.1604
▁işlemler	-11.1605
▁keşfi	-11.1605
▁2012-13	-11.1606
▁yönetimindeki	-11.1607
▁alıyordu	-11.1607
▁yerleşke	-11.1608
▁kayma	-11.1608
▁şarkılarını	-11.1609
▁mareşal	-11.1611
fon	-11.1612
▁kalenin	-11.1616
▁taşınması	-11.1616
▁batıya	-11.1616
▁üretildi	-11.1621
▁servet	-11.1623
fort	-11.1625
▁üniversitenin	-11.1627
örü	-11.1627
sos	-11.1628
hab	-11.1628
▁koyar	-11.1628
luğun	-11.1629
▁had	-11.163
▁your	-11.163
▁elemelerinde	-11.1631
▁uğra	-11.1634
▁koruması	-11.1635
▁öldürme	-11.1635
fel	-11.1638
▁ker	-11.1639
uğu	-11.1643
▁özdeş	-11.1644
▁defnedildi	-11.1645
▁kişiliği	-11.1648
sson	-11.1648
▁konularında	-11.1648
▁zararlı	-11.165
▁kaplıdır	-11.1651
ο	-11.1651
znik	-11.1652
▁geçişi	-11.1652
box	-11.1652
▁faaliyetler	-11.1652
▁dun	-11.1653
larak	-11.1655
ν	-11.1661
big	-11.1662
▁yöneten	-11.1664
▁kendisiyle	-11.1667
▁çiftin	-11.1668
▁yayımladığı	-11.1669
▁çorbası	-11.1669
▁gölün	-11.167
ebileceğini	-11.167
▁görenekleri	-11.1672
layabilir	-11.1675
▁oysa	-11.1676
▁anime	-11.1679
▁kuyruk	-11.1679
▁paylaştı	-11.168
▁seferleri	-11.1681
▁hum	-11.1681
psi	-11.1682
▁söyleme	-11.1683
lhan	-11.1684
د	-11.1684
▁telefonu	-11.1685
▁yitirdi	-11.1686
▁epi	-11.1687
▁çeşitleri	-11.1687
▁çeşidi	-11.1687
▁sivri	-11.1688
▁temsilcileri	-11.1689
▁teker	-11.169
▁benzerlik	-11.169
aydın	-11.1699
▁yemin	-11.1701
▁oturma	-11.1702
▁michel	-11.1704
▁dönmesi	-11.1704
▁düzlem	-11.1707
▁marie	-11.171
▁tabii	-11.1711
▁balina	-11.1712
▁helen	-11.1715
▁43	-11.1715
▁bern	-11.1716
makla	-11.1717
▁ajan	-11.1717
▁state	-11.172
lemiş	-11.1721
▁yapılarak	-11.1722
▁hareketinin	-11.1722
bed	-11.1725
lıktan	-11.1726
▁büyüktür	-11.1727
▁simgesi	-11.1729
▁phil	-11.173
▁anton	-11.1732
▁elmas	-11.1732
▁kabartma	-11.1733
▁patlak	-11.1734
▁potansiyeli	-11.1735
▁52	-11.1735
▁kitabını	-11.1737
▁kanseri	-11.1737
▁ayağı	-11.1737
▁kıs	-11.1737
istler	-11.1738
rdi	-11.174
▁suları	-11.174
▁mide	-11.174
▁olabilecek	-11.1741
mec	-11.1742
▁yarışmasında	-11.1742
▁hayali	-11.1743
▁inç	-11.1745
▁teması	-11.1746
▁okullar	-11.1747
kum	-11.1748
▁geometrik	-11.1751
▁dom	-11.1752
▁kurucuları	-11.1755
▁yazmış	-11.1756
amerikan	-11.1757
▁ruhu	-11.1759
▁ordusunda	-11.176
▁doları	-11.176
▁oluşturuldu	-11.1765
▁yıla	-11.177
▁lejyon	-11.1772
▁bombardıman	-11.1773
▁kayı	-11.1773
larca	-11.1776
bc	-11.1777
▁pasifik	-11.178
▁nüfuz	-11.178
▁ölümcül	-11.178
▁solunum	-11.1781
▁2013-14	-11.1782
▁gram	-11.1783
▁sera	-11.1783
▁formayı	-11.1785
▁adeta	-11.1787
▁eserini	-11.1787
▁haz	-11.1789
▁suya	-11.1791
▁hapishane	-11.1792
▁mutfağı	-11.1793
▁orduya	-11.1794
llo	-11.1794
▁üyelerinden	-11.1796
▁dul	-11.1798
▁1987'	-11.1798
▁memnun	-11.1798
▁alfa	-11.1799
▁etmedi	-11.18
▁sezonuna	-11.1802
▁turist	-11.1803
mé	-11.1804
cos	-11.1807
▁yetenek	-11.1809
▁giresun	-11.1811
▁hanlığı	-11.1812
▁tablet	-11.1813
▁projenin	-11.1814
▁kaybettiği	-11.1814
▁sorumluluk	-11.1814
tarih	-11.1816
klim	-11.1816
▁radar	-11.1819
ünde	-11.1822
▁sırayı	-11.1824
▁yurtdışında	-11.1824
zı	-11.1827
▁esen	-11.1828
▁oluşturulması	-11.1828
▁hollandalı	-11.1829
core	-11.1829
▁alet	-11.183
▁icat	-11.183
yolu	-11.1831
▁indi	-11.1831
▁ucunda	-11.1831
▁teknolojik	-11.1832
▁sarmal	-11.1833
kapı	-11.1834
quin	-11.1836
▁adli	-11.1837
▁yayınlar	-11.1841
▁semtinde	-11.1841
rel	-11.1845
▁eserde	-11.1845
▁rod	-11.1849
▁kadıköy	-11.1852
sarı	-11.1852
lanıyor	-11.186
▁yarışmayı	-11.1861
▁kazanması	-11.1866
▁gümrük	-11.1868
▁sürümleri	-11.1868
▁görmeye	-11.1868
house	-11.187
taşı	-11.1874
▁sunduğu	-11.1875
doctor	-11.1875
▁sakat	-11.1878
▁bayezid	-11.1878
▁damar	-11.1878
leşmesi	-11.1879
▁kumaş	-11.1879
▁anlamlı	-11.188
▁mardin	-11.1883
▁sosyalizm	-11.1885
▁jim	-11.1888
▁ülkelere	-11.189
▁şehirler	-11.189
▁franz	-11.1892
uf	-11.1892
▁eğilimi	-11.1893
τ	-11.1894
ani	-11.1894
▁inanılır	-11.1895
▁odun	-11.1895
▁1944'	-11.1896
▁köse	-11.1897
▁budizm	-11.1897
▁belirlenmiş	-11.1897
▁bolşevikler	-11.1898
▁faaliyetlerini	-11.1903
▁uyarlaması	-11.1906
.19	-11.1907
▁belirleme	-11.1908
tul	-11.191
▁endonezya	-11.1911
▁koltuk	-11.1911
▁hormon	-11.1912
▁gr	-11.1919
▁aşamada	-11.192
sat	-11.1921
▁transferi	-11.1921
▁kabilesi	-11.1924
▁tabloda	-11.1924
▁erdem	-11.1926
mıyor	-11.1928
▁1500	-11.1928
▁sesleri	-11.1928
50.000	-11.1929
▁büyüyen	-11.193
▁çekirdeği	-11.1931
▁girip	-11.1932
ksiyon	-11.1932
rini	-11.1936
rot	-11.1937
▁çıkaran	-11.1941
▁dönüşümü	-11.1942
▁saman	-11.1942
dow	-11.1943
▁merkezidir	-11.1943
▁erzincan	-11.1943
▁söyleyen	-11.1943
▁dor	-11.1945
değiş	-11.1945
▁ormanlık	-11.1945
▁türkçede	-11.1946
_5	-11.1952
suke	-11.1953
▁merdiven	-11.1953
▁balıkçı	-11.1954
▁çadır	-11.1955
▁mr	-11.1957
gro	-11.1958
▁fetih	-11.196
lev	-11.1961
▁çerkes	-11.1962
▁karın	-11.1962
over	-11.1962
▁marcus	-11.1964
▁wo	-11.1964
▁(14	-11.1964
▁civar	-11.1964
▁turnuvanın	-11.1968
▁başlanan	-11.1969
▁mem	-11.1969
▁serisinde	-11.197
-9	-11.1973
▁hı	-11.1974
▁seslendirme	-11.1975
▁şeridi	-11.1977
▁1911	-11.1978
▁kazandılar	-11.198
▁yetişen	-11.1981
▁geçip	-11.1983
çam	-11.1985
▁oynan	-11.1987
▁kompozisyon	-11.1988
▁başarır	-11.199
▁röportaj	-11.1991
▁kit	-11.1992
▁tanıtıldı	-11.1993
▁mizah	-11.1994
▁kiralandı	-11.1997
▁yarışmaları	-11.1998
▁suda	-11.2
rick	-11.2001
▁yollarını	-11.2003
▁sinemaya	-11.2003
▁gösteriler	-11.2004
udur	-11.2007
▁edilecek	-11.2008
▁cengiz	-11.2009
▁stefan	-11.201
kil	-11.2012
▁giymiştir	-11.2014
▁karşılamak	-11.2014
▁1,5	-11.2018
▁rakipleri	-11.2022
▁yetkilileri	-11.2024
▁hatun	-11.2024
oku	-11.2025
mail	-11.2027
▁tanımlanmıştır	-11.2029
▁katılarak	-11.2029
▁ergen	-11.2032
00'	-11.2032
▁çıkarılması	-11.2036
▁sözler	-11.2038
▁dönmüş	-11.2042
▁nef	-11.2042
▁müddet	-11.2043
▁girmek	-11.2045
▁kevin	-11.2046
▁die	-11.2047
▁direnç	-11.2047
▁proton	-11.2051
▁haberler	-11.2051
▁kırdı	-11.2052
▁kuşağı	-11.2052
▁tabur	-11.2053
▁oynar	-11.2055
▁dışarıdan	-11.2059
çiler	-11.2059
▁yüzeyi	-11.2059
▁corporation	-11.2059
▁köpeği	-11.2059
▁bölme	-11.2061
▁tamamlamıştır	-11.2061
anlar	-11.2063
ağ	-11.2065
pak	-11.2067
tav	-11.2069
▁düşüş	-11.2069
▁gecikme	-11.207
▁düşmüş	-11.2072
▁anlaşmaya	-11.2073
beli	-11.2073
rock	-11.2074
tmek	-11.2076
▁çamur	-11.2077
▁lehine	-11.2078
▁giy	-11.2078
▁kışları	-11.208
devlet	-11.2083
▁papalık	-11.2086
eus	-11.2087
▁mahalli	-11.2088
▁kızlar	-11.2088
▁rize	-11.2089
▁anlattığı	-11.2091
acaktı	-11.2091
э	-11.2092
▁gabriel	-11.2092
▁öldür	-11.2093
▁pin	-11.2093
▁anlatı	-11.2094
▁hard	-11.2096
▁pol	-11.2099
1,	-11.2101
▁köyler	-11.2101
▁efekt	-11.2105
▁bölümünden	-11.2105
▁çekmek	-11.2106
▁aralığı	-11.2107
▁rihanna	-11.2109
▁büyücü	-11.211
▁savunur	-11.2111
▁başlatılan	-11.2111
▁sembol	-11.2112
▁yayılması	-11.2112
▁burası	-11.2112
mizi	-11.2116
▁branş	-11.2117
▁itibarı	-11.2119
▁long	-11.212
▁beraberinde	-11.2123
▁tarafsız	-11.2124
undan	-11.2126
▁ağaçlar	-11.2126
▁10.000	-11.2126
▁1900	-11.2126
▁akciğer	-11.2126
▁tekstil	-11.2126
oli	-11.2126
▁havada	-11.2131
▁döndüğünde	-11.2131
zil	-11.2133
▁41	-11.2136
▁tahmini	-11.2138
▁hücrelerin	-11.214
▁anki	-11.214
lerindendir	-11.2144
▁oluş	-11.2144
qu	-11.2144
amayacak	-11.2145
▁sulu	-11.2146
▁infaz	-11.2146
▁tasarlanan	-11.2146
▁duvarlar	-11.2146
fit	-11.2147
▁görüntüsü	-11.2147
▁alış	-11.215
▁canavar	-11.215
▁oyları	-11.2151
▁ortaokul	-11.2152
kız	-11.2152
pus	-11.2152
▁kafes	-11.2154
▁mineral	-11.2154
▁giydiği	-11.2156
tive	-11.2156
cat	-11.2158
▁office	-11.216
▁yenilgiy	-11.2161
▁yıldızın	-11.2162
▁fikirleri	-11.2163
▁bağımsızlığı	-11.2163
▁kapağı	-11.2163
▁mega	-11.2166
▁yoksun	-11.2167
▁sand	-11.2168
▁zamanların	-11.2168
lıkla	-11.2172
▁egemenliğine	-11.2172
bara	-11.2174
▁bolu	-11.2174
δ	-11.2176
▁tiflis	-11.2176
▁tanık	-11.2177
▁istenen	-11.2177
landırılmıştır	-11.2177
▁teknolojileri	-11.2178
▁kalıntılar	-11.2184
▁üretici	-11.2184
▁ucu	-11.2187
▁uluslar	-11.2188
▁maddeleri	-11.2189
card	-11.219
tle	-11.219
▁şansını	-11.2191
▁heykeltıraş	-11.2193
▁meşrutiyet	-11.2193
now	-11.2193
▁düşün	-11.2194
▁biyoloji	-11.2194
▁iade	-11.2196
▁1916	-11.2199
▁aslı	-11.2201
▁eki	-11.2201
macaristan	-11.2202
cre	-11.2203
▁faktör	-11.2204
▁1986'	-11.2204
▁tutma	-11.2204
▁ipad	-11.2204
▁wood	-11.2204
chu	-11.2205
▁nedenlerle	-11.2209
sever	-11.2209
▁peynir	-11.221
gna	-11.2212
▁halkların	-11.2212
▁geometri	-11.2213
“	-11.2214
▁kulübe	-11.2215
▁rütbe	-11.2216
▁etiket	-11.2216
stat	-11.2219
▁zamandan	-11.222
town	-11.2221
▁bulamadı	-11.2222
▁(12	-11.2224
▁kri	-11.2226
▁görevlerinde	-11.2226
rif	-11.2226
▁arma	-11.2227
▁gömülü	-11.2229
rec	-11.223
▁istiyordu	-11.223
uc	-11.2232
▁kavuştu	-11.2232
kaç	-11.2232
naka	-11.2232
▁kaldılar	-11.2236
▁derinliği	-11.2238
▁anlat	-11.2238
▁katman	-11.2239
inger	-11.224
▁havzası	-11.2241
▁kazanma	-11.2243
▁maçtan	-11.2245
▁standardı	-11.2245
▁basılan	-11.2246
▁etkileyen	-11.2247
▁jar	-11.2247
▁ayırma	-11.2248
▁duyarlı	-11.2249
▁çevirisi	-11.2249
▁düşünceleri	-11.2249
▁kişilere	-11.225
▁dikey	-11.225
▁nizam	-11.2251
▁galler	-11.2251
▁düştüğü	-11.2251
▁futbolcusu	-11.2252
▁pist	-11.2252
▁genişleme	-11.2253
▁bölgelere	-11.2256
rom	-11.2257
▁zirveye	-11.2259
▁heinrich	-11.2261
▁madonna	-11.2261
▁plaka	-11.2262
▁saati	-11.2263
▁sm	-11.2264
▁"“	-11.2265
▁bağlama	-11.2266
lenip	-11.2267
▁kuşat	-11.2268
▁0,	-11.227
▁gerilla	-11.2271
▁yağışlı	-11.2273
▁erkeklerin	-11.2277
▁pirinç	-11.2278
▁46	-11.2278
▁sinop	-11.2279
▁1919'	-11.2279
▁görülme	-11.2284
▁programın	-11.2287
bio	-11.2288
▁hayranları	-11.2289
▁spike	-11.2291
düğü	-11.2292
▁yasaları	-11.2292
less	-11.2293
▁dansçı	-11.2293
▁kampı	-11.2294
س	-11.2295
▁antrenman	-11.2295
▁manuel	-11.2295
▁oluşum	-11.2295
▁getirilir	-11.2295
▁anderson	-11.2296
▁konstantinos	-11.2297
▁1903	-11.2297
▁galeri	-11.2298
▁marc	-11.23
▁anket	-11.2301
▁tarayıcı	-11.2302
▁buçuk	-11.2303
▁galaksi	-11.2303
▁subayı	-11.2308
▁aksa	-11.2308
olojik	-11.2309
▁çizgisi	-11.2311
▁ortamında	-11.2311
semi	-11.2312
▁championship	-11.2312
▁çevrimiçi	-11.2312
▁mezarlık	-11.2314
▁gitmiştir	-11.2316
▁bilinç	-11.2316
▁geçmek	-11.2318
▁giyim	-11.232
▁kitlesi	-11.2322
▁nemli	-11.2324
▁jane	-11.2325
▁yönlendirme	-11.2326
▁florida	-11.2329
▁görmesi	-11.2332
▁tai	-11.2332
ore	-11.2333
▁2.0	-11.2335
▁özen	-11.2338
jin	-11.2341
▁kenan	-11.2346
▁belirsiz	-11.2347
koz	-11.2347
▁taklit	-11.2347
▁çalışmalarda	-11.2347
▁katedrali	-11.2347
▁edilip	-11.2348
▁aslen	-11.2355
wo	-11.2355
▁jay	-11.2355
▁format	-11.2362
▁çalışmasını	-11.2362
▁lie	-11.2363
▁saklan	-11.2364
▁mesafede	-11.2365
▁hayalet	-11.2367
▁3000	-11.2368
itler	-11.237
▁hristiyanlık	-11.237
▁harika	-11.2378
▁kre	-11.2379
phe	-11.238
▁andrew	-11.2384
▁yahya	-11.2385
ago	-11.239
▁3-2	-11.2391
▁finalin	-11.2392
▁üçü	-11.2393
▁devletlerin	-11.2393
γ	-11.2397
▁sergiler	-11.2397
▁çözelti	-11.2397
▁aktris	-11.2398
▁1918'	-11.2399
▁yakup	-11.2399
▁programına	-11.24
▁hamdi	-11.2401
▁bulunmayan	-11.2402
▁boğa	-11.2404
▁1880	-11.2404
▁abbas	-11.241
▁geleceği	-11.2411
christ	-11.2411
▁dream	-11.2412
pre	-11.2412
▁inşası	-11.2413
▁izleri	-11.2413
▁uygulan	-11.2414
▁rejimi	-11.2415
▁söylenmektedir	-11.2415
hsan	-11.2416
borough	-11.2416
dl	-11.2417
trop	-11.2418
▁takımların	-11.2418
▁rub	-11.2419
▁hızlandır	-11.2421
▁deneyler	-11.2422
200	-11.2424
lular	-11.2425
larken	-11.2425
▁iktidara	-11.2428
▁albüme	-11.2429
▁belirler	-11.2431
▁nesli	-11.2431
▁örümcek	-11.2432
▁manevi	-11.2433
▁uyarınca	-11.2434
▁reich	-11.2436
ılacak	-11.2437
▁hatay	-11.2437
▁vilayet	-11.2437
▁okuluna	-11.2438
▁mol	-11.2438
-7	-11.2438
▁içeriyordu	-11.2439
layacak	-11.244
▁rai	-11.2442
▁vermeyi	-11.2442
▁alındığında	-11.2442
▁ışınları	-11.2445
▁uğramış	-11.2447
▁eğitime	-11.2448
▁unesco	-11.2449
▁bodrum	-11.2449
▁frankfurt	-11.2449
▁tevfik	-11.2449
▁bırakıp	-11.245
▁said	-11.2451
▁projeler	-11.2451
▁avlu	-11.2452
▁boyutları	-11.2452
▁rezerv	-11.2452
▁avantaj	-11.2453
▁sapma	-11.2455
▁kullanırlar	-11.2456
tamam	-11.246
eh	-11.2461
▁yayılma	-11.2461
▁taşıdı	-11.2461
▁çar	-11.2462
vak	-11.2463
▁bireylerin	-11.2463
▁medine	-11.2464
▁chelsea	-11.2466
▁karaciğer	-11.2466
▁gönder	-11.2467
onlar	-11.2467
▁şeklini	-11.2468
▁song	-11.2471
yacağı	-11.2472
▁gre	-11.2473
▁donat	-11.2475
▁kuruluşlar	-11.2475
▁yörede	-11.2477
iyat	-11.2477
▁anten	-11.2482
▁şampiyonasında	-11.2483
▁nick	-11.2483
▁başlarına	-11.2485
▁gb	-11.2487
▁dinleme	-11.2488
▁elektriksel	-11.2492
sep	-11.2493
▁mev	-11.2494
▁silahı	-11.2498
riz	-11.2498
you	-11.25
▁yürütülen	-11.2501
▁enstitü	-11.2501
▁taşları	-11.2502
▁kumanda	-11.2503
▁2009-10	-11.2504
▁%5	-11.2504
▁elemeleri	-11.2505
tina	-11.2506
▁queen	-11.2507
▁cezaevi	-11.2508
kırı	-11.2509
▁türkistan	-11.2512
zler	-11.2513
▁patent	-11.2515
▁shu	-11.2515
▁57	-11.2515
▁aralığında	-11.2516
▁çabuk	-11.2518
▁destekleme	-11.2519
şır	-11.252
▁danışmanı	-11.2521
▁töreninde	-11.2522
press	-11.2523
▁ulaşması	-11.2524
▁gelmişti	-11.2525
▁cre	-11.2526
▁bileşenleri	-11.2529
▁fasulye	-11.2529
▁yerlere	-11.253
▁saka	-11.253
▁ölme	-11.2532
▁toplantısında	-11.2532
▁bireyin	-11.2533
▁gay	-11.2533
▁benjamin	-11.2536
▁kazanmak	-11.2536
▁yücel	-11.2537
▁xbox	-11.2538
▁1979'	-11.2538
▁önerdi	-11.2539
▁hastanede	-11.254
▁katmanı	-11.254
▁oynandı	-11.2542
▁dönmek	-11.2542
▁gönderilir	-11.2543
▁1985'	-11.2546
▁programını	-11.2548
▁odasında	-11.2549
▁çevrilidir	-11.2552
▁güçler	-11.2553
▁erik	-11.2553
▁yağlı	-11.2556
▁metodu	-11.2557
▁yapısında	-11.2559
▁koyma	-11.2561
▁gösterisi	-11.2564
pet	-11.2564
▁kampüsü	-11.2566
▁filmlerde	-11.2566
▁türe	-11.2567
▁800	-11.257
▁bilgisayarlar	-11.257
▁seyyid	-11.2571
nez	-11.2573
▁etiketiyle	-11.2574
▁yüksekokulu	-11.2575
▁beton	-11.2575
▁yayınlamıştır	-11.2576
▁kazandırdı	-11.2576
▁cer	-11.2577
ât	-11.2578
tron	-11.258
▁patrik	-11.258
dö	-11.2582
▁kullandıkları	-11.2582
▁yönetimini	-11.2586
▁destekli	-11.2586
modern	-11.2588
▁yapmakta	-11.2589
▁ikiz	-11.259
▁birbiriyle	-11.2593
▁uy	-11.2594
▁anıtı	-11.2594
▁kültürünün	-11.2594
▁düzenlenmiş	-11.2595
▁fren	-11.2596
▁yerleştirilmiş	-11.2596
tory	-11.26
▁ayrıldıktan	-11.26
▁cephesinde	-11.2601
▁gez	-11.2604
▁yıllarca	-11.2605
▁360	-11.2606
▁basamak	-11.2608
gm	-11.261
▁dark	-11.261
▁üretir	-11.261
▁davranışı	-11.2611
nek	-11.2611
▁kullanılmak	-11.2611
▁termal	-11.2612
vy	-11.2615
▁ailelerin	-11.2616
▁yolun	-11.2618
▁bölüme	-11.2619
▁eserlerin	-11.2623
▁derviş	-11.2623
▁geçirerek	-11.2625
▁babasıdır	-11.2626
▁çiftliği	-11.2626
alp	-11.2628
▁—	-11.2628
▁anında	-11.263
▁was	-11.263
lé	-11.2631
ward	-11.2635
▁ordular	-11.2635
aro	-11.2636
ranlı	-11.2637
▁1941'	-11.2639
▁kolordusu	-11.2639
▁düşündü	-11.2641
▁istisna	-11.2641
▁kolombiya	-11.2641
▁birtakım	-11.2645
▁hacim	-11.265
liber	-11.2652
rol	-11.2652
▁yenilerek	-11.2653
▁altındadır	-11.2655
▁nadiren	-11.2656
▁arayüzü	-11.2656
▁dinler	-11.2658
▁pes	-11.2658
▁bağlanma	-11.2659
▁cenevre	-11.2659
▁harman	-11.266
▁uzakta	-11.2661
▁(6	-11.2663
önce	-11.2663
▁north	-11.2663
▁kıyısı	-11.2664
▁folk	-11.2666
▁gösterileri	-11.2666
▁çaldı	-11.2667
▁canlandırdığı	-11.2667
▁rahatsızlık	-11.2667
▁durdur	-11.2669
▁tarihlerde	-11.267
▁yaka	-11.2671
600	-11.2673
▁belirlendi	-11.2674
▁giymiş	-11.2674
▁letonya	-11.2676
▁tutulur	-11.2677
▁haritası	-11.2678
▁bozukluğu	-11.268
▁sever	-11.268
▁atama	-11.268
▁çekoslovakya	-11.2683
▁ürettiği	-11.2684
▁destekledi	-11.2685
dk	-11.2685
kp	-11.2685
▁katliamı	-11.2686
▁kaldırma	-11.2687
▁amaçları	-11.2687
▁billboard	-11.2689
▁sayımına	-11.2692
poli	-11.2692
▁ilinde	-11.2693
▁hikâyeleri	-11.2694
▁kraliçesi	-11.2694
▁cambridge	-11.2695
▁köklü	-11.2698
elle	-11.27
▁uçakları	-11.2702
ırmak	-11.2703
hip	-11.2706
▁ömrü	-11.2709
▁etkisiz	-11.2714
▁tehlikesi	-11.2715
▁sahneler	-11.2717
▁versiyonları	-11.2717
▁(),	-11.2718
▁gerçekleştirmiş	-11.2718
üdür	-11.2721
▁katar	-11.2722
▁eyaletinde	-11.2723
rib	-11.2723
▁allen	-11.2726
▁tamamlan	-11.2726
▁çarpan	-11.2726
▁mur	-11.2728
▁kayna	-11.2729
▁rönesans	-11.273
▁seçilmesi	-11.273
▁böcek	-11.2731
▁olmadığından	-11.2732
▁mitolojisinde	-11.2732
▁cat	-11.2734
hanesi	-11.2738
▁üniversitesinde	-11.2738
bı	-11.2739
▁yapacağı	-11.2739
▁motorlu	-11.2739
▁sok	-11.274
▁melodi	-11.274
liğinden	-11.2745
▁geliştirildi	-11.2745
▁katılması	-11.2747
▁sürdürmüştür	-11.2748
▁dram	-11.2748
▁yaratıl	-11.2749
▁müzikleri	-11.275
▁koşul	-11.275
▁ödüllendirildi	-11.2752
▁gerekçe	-11.2752
atı	-11.2754
▁kelimesinin	-11.2755
▁karikatür	-11.2758
▁sıkıntı	-11.2759
▁kitabının	-11.2761
▁yapıtı	-11.2762
uyla	-11.2762
▁doktoru	-11.2763
▁prag	-11.2763
▁türünün	-11.2764
σ	-11.2765
▁kocaeli	-11.2765
dare	-11.2766
▁götürül	-11.2768
lock	-11.2768
are	-11.277
▁partiler	-11.2771
▁toplumu	-11.2782
▁kiraz	-11.2782
▁yayılmış	-11.2782
▁sırası	-11.2783
▁hamilton	-11.2783
▁kapasiteli	-11.2783
▁birimler	-11.2784
dirler	-11.2785
çağ	-11.2786
▁duyulan	-11.2788
▁nehrin	-11.2789
▁karıştırıl	-11.279
▁tag	-11.279
▁direk	-11.2791
▁maliyet	-11.2791
▁anahtarı	-11.2791
love	-11.2792
▁kolaylıkla	-11.2797
▁seçenek	-11.2799
▁üretiminde	-11.2799
▁ötesinde	-11.28
fin	-11.28
▁desteklemek	-11.2802
▁sanılmaktadır	-11.2803
▁günler	-11.2804
▁turistik	-11.2804
▁araştırması	-11.2806
▁kei	-11.2807
▁cihazı	-11.2808
▁bıraktığı	-11.2812
çar	-11.2812
dığında	-11.2813
▁arayüz	-11.2814
cast	-11.2817
▁anlaş	-11.2818
▁çapraz	-11.2819
▁kalmak	-11.2819
▁altyapısında	-11.2821
break	-11.2823
▁bank	-11.2824
veri	-11.2826
▁yöne	-11.2827
▁bakanlık	-11.2828
▁tuğla	-11.2829
▁kısıt	-11.2829
▁şimdiye	-11.283
▁hürriyet	-11.2831
▁başlama	-11.2835
ebildiği	-11.2836
▁güvence	-11.2836
▁dikdörtgen	-11.2837
..."	-11.2837
▁tutsak	-11.2838
▁içerisine	-11.2839
▁fahri	-11.2842
▁kararını	-11.2847
▁asistan	-11.2847
▁store	-11.2847
▁ilaçlar	-11.2848
▁yaralandı	-11.285
stihbarat	-11.285
▁auto	-11.285
cılığı	-11.2854
▁tamamlayarak	-11.2855
▁yasama	-11.2856
▁görüntüleme	-11.2858
▁samsunspor	-11.2858
▁bağlamda	-11.2859
▁hart	-11.2861
▁ikincil	-11.2861
▁evlenmiştir	-11.2863
▁söylenen	-11.2863
▁şarkıya	-11.2863
▁kurar	-11.2865
▁çiftçi	-11.2866
▁1982'	-11.2867
▁müziğin	-11.2867
в	-11.2869
▁nev	-11.2869
ters	-11.287
▁esnek	-11.2871
▁görünümü	-11.2871
▁konulu	-11.2872
▁1909	-11.2873
▁philip	-11.2873
▁başarıları	-11.2873
▁delik	-11.2873
▁punk	-11.2874
▁nötron	-11.2874
▁özür	-11.2875
ath	-11.2875
||	-11.2876
şarkı	-11.2878
▁geçirilmesi	-11.2881
▁müsabaka	-11.2882
▁elindeki	-11.2883
▁yayına	-11.2883
▁tankı	-11.2885
▁180	-11.2885
▁çalın	-11.2887
▁onuncu	-11.2888
▁yozgat	-11.2891
sızlık	-11.2891
▁özelliklere	-11.2892
▁alev	-11.2892
▁fransızlar	-11.2893
stre	-11.2893
▁kalmaya	-11.2895
▁üyeler	-11.2896
▁aksiyon	-11.2897
▁1878	-11.2897
▁dolarlık	-11.2903
▁gerçekleştiği	-11.2906
war	-11.2906
▁takımla	-11.2907
▁limit	-11.2907
▁nec	-11.2909
▁teğmen	-11.2909
▁evleri	-11.2909
▁dayanışma	-11.2909
▁masaüstü	-11.291
▁pembe	-11.291
▁üretmek	-11.291
▁muhafazakar	-11.2911
▁vakti	-11.2911
▁hayır	-11.2913
pati	-11.2917
▁verdiğini	-11.292
▁ailesinden	-11.292
has	-11.292
▁ölçekli	-11.2921
▁aşkı	-11.2922
▁kaldır	-11.2927
hof	-11.2928
▁milyondan	-11.2929
▁hastalıklar	-11.293
gb	-11.2931
▁reg	-11.2932
▁sansür	-11.2933
phy	-11.2933
sergilenmektedir	-11.2933
ebildi	-11.2935
öğretim	-11.2935
▁kırık	-11.2935
▁ekseni	-11.2937
▁mutlaka	-11.2945
▁milletvekilliği	-11.2945
▁kılıcı	-11.2946
▁kuzeye	-11.2946
▁husus	-11.2948
▁ortağı	-11.2949
▁metredir	-11.295
▁bakar	-11.2951
▁taraftarı	-11.2951
▁viii	-11.2951
▁edilme	-11.2952
▁ihtiyacını	-11.2954
▁üretimine	-11.2954
▁yeniçeri	-11.2955
▁pazarı	-11.2957
▁çekişme	-11.2958
▁gui	-11.2959
rea	-11.296
▁oluştururlar	-11.2961
kazu	-11.2962
▁galerisi	-11.2963
▁harvard	-11.2963
▁arkasından	-11.2965
uzun	-11.2967
▁geçerlidir	-11.2968
▁şeh	-11.2969
-13	-11.297
dou	-11.297
▁tanıttı	-11.2973
▁oyununda	-11.2975
ux	-11.2975
▁satıldı	-11.2975
▁gidiş	-11.2977
▁parçacıkların	-11.2981
kış	-11.2982
ô	-11.2982
▁göstermesi	-11.2983
▁atletizm	-11.2983
▁tutulan	-11.2983
▁kiev	-11.2983
▁vizyona	-11.2985
▁kav	-11.2987
▁tarihî	-11.2997
▁mevkii	-11.2998
▁defteri	-11.3
▁multi	-11.3001
▁azından	-11.3001
▁touch	-11.3001
▁imkân	-11.3003
roman	-11.3005
▁göztepe	-11.3006
▁street	-11.3006
▁gözle	-11.3009
▁light	-11.3011
mesiyle	-11.3011
▁imzalandı	-11.3013
▁sektörü	-11.3014
▁hırvat	-11.3014
▁dc	-11.3016
▁brand	-11.3016
ب	-11.3018
▁zürih	-11.3018
▁unsur	-11.3019
▁levi	-11.302
▁taksim	-11.3021
▁alb	-11.3021
▁damla	-11.3023
▁1973'	-11.3025
allah	-11.3029
▁ardında	-11.303
pal	-11.303
▁jacques	-11.3031
▁francis	-11.3035
▁olağan	-11.3036
▁marksist	-11.3036
▁tutuk	-11.3037
▁lif	-11.3038
▁anlatılan	-11.3039
abilirler	-11.304
▁kontluğu	-11.304
▁noktaya	-11.304
hay	-11.3041
miyordu	-11.3041
eğer	-11.3042
▁dallarında	-11.3042
etik	-11.3042
▁tarama	-11.3045
▁gerçekleş	-11.3045
▁doğası	-11.3046
thy	-11.3051
gau	-11.3052
▁kontrolünü	-11.3055
vekil	-11.3055
▁oylaması	-11.3056
▁gişe	-11.3056
▁yağı	-11.3057
▁1902	-11.3058
▁benze	-11.3058
aria	-11.3059
stri	-11.306
genel	-11.3061
▁ilçeleri	-11.3065
tol	-11.3066
▁yaşarlar	-11.307
▁nota	-11.307
count	-11.3073
come	-11.3075
▁görünme	-11.3078
▁dakikalık	-11.308
born	-11.3082
boz	-11.3083
▁bilginin	-11.3083
ish	-11.3084
statik	-11.3085
▁aygıt	-11.3088
▁sayısına	-11.3089
▁aktarma	-11.309
pie	-11.3091
▁patlayıcı	-11.3093
▁durumları	-11.3095
▁bitirdikten	-11.3096
kem	-11.3097
vur	-11.31
▁karabağ	-11.3102
▁death	-11.3103
▁good	-11.3105
▁1967'	-11.3106
▁üretilir	-11.3108
▁işlerini	-11.3109
laç	-11.311
▁beldesi	-11.311
▁çevresel	-11.311
face	-11.3111
yesi	-11.3111
▁sağlanmaktadır	-11.3114
▁desteklenen	-11.3116
zir	-11.3116
▁kanıtlar	-11.312
gır	-11.312
▁görmektedir	-11.3122
▁koyduğu	-11.3122
yeşil	-11.3123
▁tartışıl	-11.3123
roz	-11.3123
▁inanış	-11.3124
▁birleşerek	-11.3124
▁bölgesinden	-11.3125
▁dizayn	-11.3127
ille	-11.3128
▁boğaziçi	-11.3129
▁kurallar	-11.3129
▁inc	-11.3129
▁samsung	-11.3134
▁imam	-11.3137
atta	-11.3138
▁köken	-11.3139
cr	-11.314
▁kw	-11.3142
▁ted	-11.3143
▁tepkiler	-11.3145
▁ferdinand	-11.3147
▁imkanı	-11.3148
gürcüce	-11.3149
tıp	-11.3149
▁1901	-11.3151
▁girmeyi	-11.3151
▁ef	-11.3152
▁1896	-11.3152
▁kazılarda	-11.3154
▁sunan	-11.3154
▁bla	-11.3158
▁master	-11.3161
cir	-11.3163
▁facebook	-11.3166
▁kadroda	-11.3166
▁kanuni	-11.3166
▁sözlük	-11.3167
▁130	-11.3168
hov	-11.3168
laştırılması	-11.3169
▁havza	-11.3173
▁düşünen	-11.3175
ruh	-11.3176
▁ps	-11.3179
▁girişimleri	-11.3179
▁enver	-11.3179
▁sevgili	-11.318
▁tamamını	-11.3181
▁inanma	-11.3182
▁yıkım	-11.3183
▁karşılaşmasında	-11.3186
▁koymuştur	-11.3186
▁göktürk	-11.3186
▁metni	-11.319
▁1895	-11.319
▁dilin	-11.3192
▁bulgular	-11.3192
▁47	-11.3195
▁organizasyonu	-11.3196
▁basıldı	-11.3196
▁1983'	-11.3198
▁kontu	-11.3198
izmin	-11.3202
hra	-11.3203
▁med	-11.3204
▁araziler	-11.3204
▁yanındaki	-11.3207
▁çatısı	-11.3208
▁köyüne	-11.3208
▁yaşandı	-11.3209
just	-11.321
▁yükselmesi	-11.3212
▁emriyle	-11.3213
▁kelimeler	-11.3215
▁kökleri	-11.3215
gno	-11.3218
▁yorumcu	-11.3218
▁tecavüz	-11.3221
▁karşılaştığı	-11.3222
▁rassal	-11.3222
▁hasılat	-11.3225
▁havuz	-11.3226
eder	-11.3227
▁istemiştir	-11.3227
▁çalışırlar	-11.3229
▁ekstra	-11.3229
▁faaliyete	-11.3232
ism	-11.3232
tig	-11.3236
▁buluşma	-11.3237
▁çabası	-11.3237
▁1974'	-11.3238
▁tepkime	-11.3239
▁katılımıyla	-11.3239
vari	-11.3239
▁sürpriz	-11.324
▁oku	-11.3241
▁yönetiminin	-11.3243
▁kürtçe	-11.3244
▁kaçış	-11.3245
dikten	-11.3246
▁zeka	-11.3248
olo	-11.3253
▁kata	-11.3253
▁yapmıştı	-11.3256
▁portre	-11.3256
▁onlarla	-11.3256
β	-11.3259
▁istihdam	-11.3259
▁toplulukları	-11.3259
alt	-11.326
▁teksas	-11.3264
▁dairesel	-11.3266
▁koz	-11.3266
▁mühendisi	-11.3268
▁taze	-11.3269
ciliği	-11.3269
▁yansıt	-11.3274
▁hareketler	-11.3276
ł	-11.3278
▁menderes	-11.3278
▁renkte	-11.3278
▁tamamlanması	-11.328
▁kir	-11.3284
loji	-11.3284
▁melik	-11.3285
▁sd	-11.3286
▁demek	-11.3288
▁dağın	-11.3292
▁prensip	-11.3292
▁edeceğini	-11.3294
▁victor	-11.3295
pit	-11.3295
▁bella	-11.3296
hari	-11.3298
▁dramatik	-11.3299
▁gold	-11.33
▁kurmaya	-11.33
▁1897	-11.3301
▁zorluk	-11.3305
▁istek	-11.3306
▁izlenim	-11.3306
▁öden	-11.3306
▁prova	-11.3307
▁1977'	-11.3308
▁saltanatı	-11.3309
▁hareketini	-11.331
▁kalesini	-11.3313
▁zorlu	-11.3317
▁home	-11.3317
kırmızı	-11.3319
▁gayri	-11.3321
lığının	-11.3322
▁olduğunun	-11.3325
▁gönül	-11.3326
▁zan	-11.3327
▁personeli	-11.3328
▁ast	-11.3328
ugh	-11.3329
▁rh	-11.333
▁ilki	-11.333
▁gücünün	-11.333
stad	-11.3331
▁kazılar	-11.3331
▁danışman	-11.3334
file	-11.3334
▁tedarik	-11.3334
▁iğne	-11.3335
▁efsanevi	-11.3336
▁telif	-11.3337
▁yönden	-11.3342
▁çinli	-11.3346
▁grev	-11.3348
lişkiler	-11.3348
▁toplanır	-11.335
▁geliştir	-11.3351
▁ayin	-11.3351
▁cesedi	-11.3352
▁beyoğlu	-11.3353
▁irmağı	-11.3353
▁samuel	-11.3353
rıcı	-11.3354
▁topluluğun	-11.3356
▁motorları	-11.3357
▁etmektedirler	-11.3363
▁yaratık	-11.3365
▁10'	-11.3368
güzel	-11.3369
labilir	-11.3369
▁görece	-11.3371
▁shakespeare	-11.3372
▁patates	-11.3372
-11	-11.3372
▁zihinsel	-11.3373
onun	-11.3374
▁kabuk	-11.3375
▁voltaj	-11.3376
▁gazı	-11.3377
yapı	-11.3377
▁çekmektedir	-11.3382
▁lev	-11.3382
▁duru	-11.3383
ese	-11.3385
▁demirci	-11.3385
çeri	-11.3386
▁maaş	-11.3387
▁varsayım	-11.3387
▁başlarda	-11.339
▁bağırsak	-11.3391
▁kahramanmaraş	-11.3391
▁eyüp	-11.3391
▁disney	-11.3392
▁katılımı	-11.3393
▁dahilinde	-11.3393
▁öfke	-11.3394
▁jason	-11.3394
▁vaka	-11.3395
▁ustası	-11.3395
▁meclise	-11.3396
liyordu	-11.3398
▁adıdır	-11.3398
vey	-11.34
▁işini	-11.34
zh	-11.34
ctor	-11.3402
▁birbirini	-11.3403
amamış	-11.3404
▁devral	-11.3404
▁değişiklikleri	-11.3404
—	-11.3405
▁geliştirdiği	-11.3406
2.5	-11.3406
▁yerlerinde	-11.3407
▁amy	-11.3407
etli	-11.3408
▁tayyip	-11.341
▁korur	-11.3411
▁problemleri	-11.3411
▁telgraf	-11.3414
▁zordur	-11.3415
▁fuat	-11.3415
▁seviyeleri	-11.3415
ûl	-11.3416
rıldı	-11.3416
▁toplantısı	-11.3417
▁çat	-11.3419
▁harekatı	-11.3421
▁sina	-11.3429
▁junior	-11.3429
▁ramazan	-11.3429
▁anlaşılır	-11.3431
▁heyecan	-11.3433
▁görünce	-11.3433
▁hikâyeler	-11.3436
▁market	-11.3438
only	-11.3439
▁kuvvetlerine	-11.3441
▁taraftar	-11.3442
▁olmamasına	-11.3442
▁sıfat	-11.3442
▁övgü	-11.3442
▁nitelendiril	-11.3445
▁sınavı	-11.3448
▁2008-09	-11.3448
▁restore	-11.3448
▁cehennem	-11.3449
▁ihtiva	-11.3449
▁1939'	-11.345
max	-11.3451
alman	-11.3452
▁augustus	-11.3452
▁tarıma	-11.3453
▁1877	-11.3453
ahmet	-11.3453
▁hazırlama	-11.3453
▁bedeli	-11.3453
▁carol	-11.3453
çılar	-11.3455
under	-11.3455
hava	-11.3455
life	-11.3456
▁lau	-11.3456
iği	-11.3457
▁yaşamın	-11.3457
▁bileşeni	-11.346
▁bağlantıları	-11.346
burn	-11.3461
▁sayım	-11.3462
▁abdül	-11.3462
▁yemen	-11.3463
▁aniden	-11.3463
▁niteliği	-11.3464
▁istenilen	-11.3467
▁lewis	-11.3467
▁görün	-11.3468
▁norman	-11.3468
▁köşesinde	-11.347
▁kaptanı	-11.3471
▁zu	-11.3471
▁1943'	-11.3471
▁köylerde	-11.3472
▁fü	-11.3472
▁49	-11.3474
▁kapatıldı	-11.3476
▁isimlerle	-11.3478
▁hugo	-11.3479
▁planlı	-11.3481
▁tap	-11.3482
▁filmdeki	-11.3482
gah	-11.3482
▁edeceği	-11.3482
ılınca	-11.3484
▁levha	-11.3484
▁besleme	-11.3484
▁muhtemel	-11.3486
▁sevilen	-11.3487
▁sefere	-11.3488
▁liginde	-11.349
yim	-11.3491
shaw	-11.3492
▁kong	-11.3493
▁sto	-11.3494
▁kısmına	-11.3495
▁more	-11.3498
▁ormanları	-11.3499
▁kalkış	-11.3504
▁cemil	-11.3504
▁kurucularından	-11.3507
▁döngüsü	-11.3508
▁fotoğraflar	-11.3511
▁koruyan	-11.3512
hs	-11.3514
▁yapımcıları	-11.3515
]]'	-11.3518
▁tabiat	-11.3519
▁ayıran	-11.3519
▁açlık	-11.3521
▁suçu	-11.3521
▁başlamadan	-11.3521
▁şahit	-11.3522
▁başlat	-11.3523
▁veritabanı	-11.3525
▁zonguldak	-11.3525
düş	-11.3526
hut	-11.3527
▁metinler	-11.3528
▁intel	-11.3528
▁taşınmıştır	-11.3529
masından	-11.353
lüğünü	-11.3531
▁geliyordu	-11.3531
▁bölümlerinde	-11.3532
▁duyuru	-11.3532
▁serin	-11.3532
▁kutusu	-11.3533
▁uzaklık	-11.3534
▁operasyonu	-11.3534
▁keşiş	-11.3534
▁nüfusa	-11.3537
▁yy	-11.3538
dım	-11.3539
▁21.	-11.3539
▁çim	-11.354
pas	-11.3542
ère	-11.3542
▁onlardan	-11.3543
▁varşova	-11.3544
▁dönük	-11.3544
▁saatlik	-11.3546
▁geceleri	-11.3546
▁kuruluşundan	-11.3548
adem	-11.3548
▁plazma	-11.3549
▁molla	-11.3549
▁akımın	-11.355
sunun	-11.355
▁kerim	-11.3557
▁1969'	-11.3561
▁pet	-11.3563
▁oyunudur	-11.3565
▁down	-11.3565
▁bileşen	-11.3567
▁çıkarlar	-11.3568
▁gerektiren	-11.3569
vul	-11.3569
▁ölçüsü	-11.357
▁ayları	-11.3573
ets	-11.3573
▁durur	-11.3579
▁önerisi	-11.3579
▁malzemeleri	-11.358
▁diyalog	-11.3583
▁belirterek	-11.3583
▁sahneleri	-11.3584
▁çevrim	-11.3584
▁kurulmasına	-11.3586
▁oyuncak	-11.3586
▁kopar	-11.3587
▁dia	-11.3587
▁tanışır	-11.3587
▁köyden	-11.3588
▁elçisi	-11.3589
▁başlatıldı	-11.3589
wel	-11.3591
▁dolaş	-11.3591
▁ross	-11.3592
bridge	-11.3592
lanıyordu	-11.3593
▁içindedir	-11.3594
▁başladığında	-11.3594
▁sendromu	-11.3595
▁dörtlü	-11.3596
▁olmamıştır	-11.3597
▁gelmesiyle	-11.3598
kap	-11.3598
▁adından	-11.3598
▁gitmeye	-11.3598
▁ayrılmak	-11.3601
▁unsurları	-11.3602
▁hâkim	-11.3602
▁günlerinde	-11.3604
▁hong	-11.3605
▁eylemler	-11.3606
▁matematikçi	-11.3606
▁kazandıkları	-11.361
mızın	-11.361
cd	-11.3613
▁dinlenme	-11.3614
▁yükseklik	-11.3614
▁çalgı	-11.3615
plan	-11.3615
▁cihazın	-11.362
▁yazıldığı	-11.3621
▁atmış	-11.3621
▁anthony	-11.3621
▁tramvay	-11.3621
▁değiştirerek	-11.3622
▁sanatçıların	-11.3623
▁bilgin	-11.3623
▁istemesi	-11.3623
▁div	-11.3623
▁giymektedir	-11.3625
hum	-11.3628
▁değerini	-11.363
▁vatandaşları	-11.363
▁diplomat	-11.3631
▁hipotez	-11.3632
▁mesajı	-11.3633
oro	-11.3633
▁sekreter	-11.3633
▁gezegenin	-11.3634
▁gömüldü	-11.3634
▁şii	-11.3635
▁istemci	-11.3636
▁etrafı	-11.3636
ilmektedir	-11.3637
▁miss	-11.3638
what	-11.364
▁space	-11.3641
lıyordu	-11.3641
tech	-11.3645
mızı	-11.3645
▁akar	-11.3645
lerarası	-11.3646
atlı	-11.3648
▁gökyüzü	-11.3649
▁kurumun	-11.3649
sas	-11.365
step	-11.365
▁türünde	-11.3651
▁dansı	-11.3652
▁diller	-11.3654
▁köşk	-11.3656
800	-11.3658
▁korkunç	-11.366
ost	-11.366
▁seçeneği	-11.3661
▁blu	-11.3662
▁sünni	-11.3663
▁çevirdi	-11.3663
erkek	-11.3663
▁54	-11.3663
ders	-11.3664
▁mey	-11.3664
▁davis	-11.3665
▁ikisinin	-11.3669
▁evliya	-11.367
▁tabanca	-11.3671
▁%2	-11.3671
▁edecektir	-11.3672
▁askere	-11.3672
▁önemlisi	-11.3672
▁uğrar	-11.3673
▁yasağı	-11.3673
▁2020	-11.3675
▁yar	-11.3675
▁savaşlar	-11.3678
▁gösterge	-11.3679
ao	-11.368
▁gey	-11.368
▁alakalı	-11.368
▁isabet	-11.368
▁üretme	-11.3681
ilip	-11.3681
geri	-11.3681
yunanca	-11.3682
▁zıt	-11.3683
▁kuzeyindeki	-11.3686
sakal	-11.3687
lanmıştı	-11.3687
▁ailesini	-11.3688
▁sean	-11.3688
▁gelişti	-11.3691
▁finans	-11.3692
▁görevlileri	-11.3693
▁tutulma	-11.3696
▁yürü	-11.3699
bazı	-11.3699
▁tavır	-11.37
▁sıralamasında	-11.3701
▁direktörlük	-11.3702
hayat	-11.3702
eth	-11.3705
▁güreşçi	-11.3705
▁evvel	-11.3706
▁1876	-11.3706
şin	-11.3706
▁korun	-11.3708
▁rom	-11.371
▁seçmek	-11.371
▁yanma	-11.3711
abilmiştir	-11.3712
▁110	-11.3714
▁asil	-11.3714
▁bestesi	-11.3715
▁saatte	-11.3716
▁güçlerini	-11.3717
▁seni	-11.3719
▁çikolata	-11.3719
▁1984'	-11.372
▁gregor	-11.3721
▁bulunmadığı	-11.3724
▁şekillerde	-11.3724
▁satarak	-11.3725
▁galibiyeti	-11.3725
▁1942'	-11.3726
▁britanyalı	-11.3726
▁yıldızların	-11.3728
▁gazetenin	-11.3728
eau	-11.3729
▁sözleşmesini	-11.3729
▁gla	-11.373
▁integral	-11.373
▁lady	-11.3732
mag	-11.3732
▁ekleme	-11.3733
▁romanları	-11.3735
▁varan	-11.3735
▁51	-11.3735
lendirir	-11.3735
▁uğraşan	-11.3735
▁alüminyum	-11.3739
▁beylerbeyi	-11.3739
▁milletvekilleri	-11.3739
▁1800	-11.3739
▁esnada	-11.3739
▁kaleyi	-11.374
▁alındığı	-11.3742
▁belgesi	-11.3744
▁yerinden	-11.3745
hun	-11.3747
▁sesler	-11.3747
▁bildirim	-11.3754
▁bakımı	-11.3754
zol	-11.3757
bunun	-11.3759
▁diego	-11.3761
ust	-11.3761
▁oynanır	-11.3762
1.000	-11.3763
▁ortada	-11.3764
▁yöresel	-11.3764
roma	-11.3767
▁amino	-11.3767
mc	-11.3769
▁sr	-11.3771
▁tanıştığı	-11.3772
▁east	-11.3772
▁dillerinde	-11.3773
▁siyaseti	-11.3773
▁restorasyon	-11.3775
▁nijerya	-11.3775
▁kostüm	-11.3777
▁tutarlı	-11.3777
▁entelektüel	-11.3778
▁bataklık	-11.3778
▁ilişkilerini	-11.378
▁ayakları	-11.3781
▁anılmaktadır	-11.3781
▁ibm	-11.3783
▁andrea	-11.3784
▁görelilik	-11.3785
▁mario	-11.3787
ppe	-11.3788
▁çocuklara	-11.3789
zak	-11.3789
lmaz	-11.3792
▁tekke	-11.3794
cap	-11.3796
▁göstermeye	-11.3797
▁1.5	-11.3797
▁devreye	-11.3798
▁tribün	-11.3799
▁bilgiye	-11.3802
▁düzenlemesi	-11.3802
▁sonucuna	-11.3806
▁durumdan	-11.3807
maç	-11.3807
▁artmıştır	-11.381
▁skor	-11.381
▁yunanlar	-11.3811
▁yakalandı	-11.3812
▁görenek	-11.3813
cru	-11.3813
▁benzin	-11.3817
▁bileşik	-11.3818
▁2007-08	-11.3818
▁editör	-11.3819
▁çalışıyor	-11.382
got	-11.3821
▁şerit	-11.3822
▁üretilmiştir	-11.3822
▁müziğini	-11.3824
stin	-11.3826
▁yazmak	-11.3828
▁finalleri	-11.3829
▁süreyle	-11.3829
▁taşıt	-11.383
▁ec	-11.383
▁1975'	-11.3831
▁ihtiyaçlarını	-11.3834
▁eserlerinden	-11.3835
▁1972'	-11.3837
vent	-11.3837
▁kıpçak	-11.3838
▁soğan	-11.3838
▁konumuna	-11.3838
▁dünyasına	-11.3839
▁yaşanmaktadır	-11.3839
▁ileride	-11.384
ladıkları	-11.384
▁arm	-11.3841
▁korkusu	-11.3841
▁dünyaca	-11.3842
▁psiko	-11.3842
yaklaşık	-11.3843
▁hiçbiri	-11.3843
▁üyeliğine	-11.3845
▁öğrenimi	-11.3845
▁burnu	-11.3846
▁kimsenin	-11.3846
▁kırılma	-11.3847
▁yapıyor	-11.3848
▁endo	-11.385
▁lang	-11.3852
abad	-11.3852
▁edebiyatının	-11.3853
mmer	-11.3853
▁uzlaşma	-11.3855
▁istilası	-11.3856
▁ormanlar	-11.3856
▁şehirdeki	-11.3858
▁görülmeye	-11.386
▁engeller	-11.386
▁somut	-11.386
▁asır	-11.3861
▁sağlaması	-11.3861
▁kadınları	-11.3862
▁azalması	-11.3862
▁bryan	-11.3863
▁edince	-11.3864
▁direnci	-11.3867
▁çalar	-11.3868
▁anlamak	-11.3874
▁makaleler	-11.3874
▁sürmüş	-11.3875
▁çalma	-11.3879
stal	-11.3881
örn	-11.3882
point	-11.3884
ming	-11.3885
▁eğilim	-11.3886
▁sınırında	-11.3887
pia	-11.3887
▁kayıplar	-11.3889
som	-11.3891
▁fenomen	-11.3892
▁oksit	-11.3892
▁eklem	-11.3892
▁hukuki	-11.3895
▁antrenör	-11.3896
▁sis	-11.3896
▁mani	-11.3896
▁dâhil	-11.3897
awa	-11.3898
▁konumunda	-11.39
▁üstünlük	-11.39
▁demet	-11.3901
▁dawn	-11.3902
▁tayf	-11.3902
lanmaya	-11.3903
jer	-11.3906
▁civarındadır	-11.3906
▁şahıs	-11.3907
▁kararname	-11.3907
▁bakınız	-11.3908
kurt	-11.3908
▁şaman	-11.3909
з	-11.391
▁pompa	-11.3911
kaz	-11.3911
▁ref	-11.3911
mağ	-11.3913
fransa	-11.3913
▁margaret	-11.3917
▁tazminat	-11.3917
▁hidro	-11.3918
trans	-11.3918
▁sci	-11.3919
▁durak	-11.3919
içi	-11.3919
▁afyon	-11.392
lost	-11.392
▁ekrem	-11.3922
▁çağır	-11.3922
▁ihtiyaçları	-11.3922
▁antalyaspor	-11.3922
▁savaştı	-11.3923
dom	-11.3924
▁enerjinin	-11.3925
▁girişti	-11.3926
▁nesneler	-11.3926
abiliyor	-11.3927
▁yoldan	-11.3928
▁jeolojik	-11.3929
▁sayfası	-11.3932
terek	-11.3933
tropik	-11.3934
▁öğret	-11.3935
▁kılın	-11.3936
▁moldova	-11.3937
▁simetri	-11.3939
▁ankaragücü	-11.3939
▁pur	-11.394
3.000	-11.394
▁toprağı	-11.3942
▁kabiliyeti	-11.3942
▁âli	-11.3943
▁yılını	-11.3944
▁leh	-11.3947
▁yapılı	-11.3947
▁tutulması	-11.395
▁gücüne	-11.3952
kızıl	-11.3952
▁deneyimi	-11.3952
▁(13	-11.3953
▁evlilikten	-11.3955
▁kanalları	-11.3955
▁bırakmak	-11.3957
▁bö	-11.396
▁gelenekleri	-11.396
▁1898	-11.3963
▁sistemlerinin	-11.3963
▁yeme	-11.3963
▁yönetil	-11.3963
▁filmlerin	-11.3964
▁birbirlerini	-11.3964
▁1899	-11.3965
board	-11.3967
▁büyümesi	-11.3969
▁geçirmesi	-11.3969
▁cover	-11.3973
▁civarı	-11.3973
▁saldırır	-11.3974
zio	-11.3975
▁bü	-11.3975
ω	-11.3978
▁tartışmalı	-11.3978
▁53	-11.3978
▁robin	-11.3979
▁temsili	-11.3979
▁crow	-11.3981
doğ	-11.3982
▁pozisyonu	-11.3983
▁uçaklar	-11.3984
▁cihan	-11.3985
▁yetiştiriciliği	-11.3985
▁nano	-11.3989
▁alabilir	-11.3992
▁hektar	-11.3994
▁jam	-11.3995
▁malezya	-11.3998
▁belirleyen	-11.3998
▁katılımını	-11.3999
▁namlu	-11.3999
▁sekreterliği	-11.4
▁uyarlanan	-11.4
▁yazarlığı	-11.4
▁türkmenleri	-11.4001
▁nihai	-11.4001
▁çalışarak	-11.4002
▁etmeleri	-11.4002
▁taraflı	-11.4003
abı	-11.4003
▁yönünü	-11.4003
gene	-11.4003
tw	-11.4005
▁boks	-11.4006
▁kurtarır	-11.4006
▁suçlar	-11.4006
graf	-11.4007
lamıştı	-11.4013
▁huzur	-11.4015
▁deplasmanda	-11.4016
▁tavuk	-11.4019
▁kızkardeşi	-11.402
▁yapıda	-11.402
х	-11.4022
▁bilgilere	-11.4022
jet	-11.4022
▁birleşti	-11.4023
▁kaçmak	-11.4024
▁(7	-11.4025
▁eleştirmen	-11.4026
▁politikacı	-11.4029
▁eteklerinde	-11.4031
lle	-11.4031
▁imparatorluğun	-11.4034
▁standard	-11.4037
▁meşgul	-11.4038
▁devrin	-11.4039
▁julia	-11.4039
landırılmış	-11.4039
▁toplayarak	-11.4043
tius	-11.4043
▁mahalleden	-11.4045
▁harfleri	-11.4045
▁düşündüğü	-11.4047
bül	-11.4047
sir	-11.4048
family	-11.4048
▁göçü	-11.4048
ober	-11.4048
▁iddiaları	-11.4048
▁cass	-11.4049
▁ipod	-11.4049
▁gizemli	-11.405
▁yorumu	-11.405
▁okullarda	-11.4051
▁slovenya	-11.4051
2.000	-11.4051
▁muhteşem	-11.4052
▁dre	-11.4053
ark	-11.4056
▁harbiye	-11.4057
▁reddeder	-11.4057
▁tugay	-11.4059
▁jordan	-11.406
anne	-11.4061
▁kısmi	-11.4061
toz	-11.4062
eye	-11.4064
▁yankı	-11.4065
▁buluştu	-11.4065
▁etkilenen	-11.4066
▁küçül	-11.4068
▁çapı	-11.4069
▁programının	-11.4069
▁kalmıştı	-11.4069
kıran	-11.407
▁değerlendir	-11.4074
▁saptan	-11.4075
▁kullanımına	-11.4075
▁elini	-11.4077
▁nişancı	-11.4077
▁öğrencilere	-11.4078
bî	-11.4079
▁apartman	-11.4079
▁sodyum	-11.4079
▁soğutma	-11.4079
önü	-11.4082
▁(8	-11.4086
▁hamza	-11.4086
▁seçimde	-11.4087
lerimiz	-11.4088
▁finalden	-11.4091
▁şarkıda	-11.4091
▁kamuoyu	-11.4092
▁yerleşmesi	-11.4092
▁fırlatma	-11.4092
old	-11.4093
▁sakatlığı	-11.4094
▁riski	-11.4096
▁canlılar	-11.4096
▁batman	-11.4097
.(	-11.4098
▁parçacığın	-11.4099
rev	-11.4101
▁lehçesi	-11.4102
▁yazıcı	-11.4104
sca	-11.4104
▁dediği	-11.4105
▁yargılama	-11.4111
▁fire	-11.4112
▁bozkır	-11.4113
▁haklar	-11.4113
iri	-11.4114
▁adlandırıldı	-11.4114
▁sihir	-11.4114
▁700	-11.4115
▁kesit	-11.4117
▁değiştirir	-11.4117
▁toplandı	-11.4117
▁kadınlara	-11.4117
▁kulüpleri	-11.4118
four	-11.4119
▁toplanması	-11.4119
ğında	-11.4119
▁yetkililer	-11.412
▁1978'	-11.4122
▁yaşından	-11.4124
leyecek	-11.4125
▁öldürülen	-11.4125
"("	-11.4126
▁little	-11.4126
▁gazetesinin	-11.4129
ıyorlardı	-11.4129
▁arazileri	-11.4129
▁konumda	-11.4129
▁adlandırıl	-11.413
▁kullanılacak	-11.4132
▁yolunun	-11.4133
▁1981'	-11.4134
play	-11.4134
▁çıkacak	-11.4136
▁büyüklükte	-11.4137
▁aşan	-11.4138
▁kardeşinin	-11.4139
▁ulaşmış	-11.4139
▁zehirli	-11.4139
▁duruşma	-11.414
▁yalın	-11.4142
gl	-11.4143
▁sınıflandırıl	-11.4148
▁dükkân	-11.4149
▁atı	-11.4153
▁açıktır	-11.4153
▁jr	-11.4154
▁bayern	-11.4154
▁yönelim	-11.4155
▁ölçek	-11.4156
▁yapıtları	-11.4157
▁kayıtlar	-11.4157
▁üretilmiş	-11.4159
▁başını	-11.4159
eks	-11.416
pil	-11.416
▁favori	-11.4161
▁ofis	-11.4161
▁zeynep	-11.4161
▁esinlenerek	-11.4161
▁tarafın	-11.4162
▁memleketi	-11.4162
▁yazıt	-11.4163
▁söylem	-11.4164
duğunu	-11.4165
▁karşılaşması	-11.4166
▁dosyaları	-11.4166
▁johnny	-11.4166
▁referandum	-11.4168
▁katkıları	-11.4168
▁sahibidir	-11.4169
▁yapılmasını	-11.4171
▁atlama	-11.4174
▁bucak	-11.4176
▁stok	-11.4177
▁etmesiyle	-11.4177
▁anlaşmazlık	-11.4178
▁1968'	-11.4179
▁ayrımı	-11.4179
▁olasılıkla	-11.4181
▁yıldönümü	-11.4181
▁mecbur	-11.4181
▁estetik	-11.4181
▁tutku	-11.4181
▁2019'	-11.4182
cp	-11.4182
▁korkut	-11.4184
▁bitmesi	-11.4184
▁seçer	-11.4185
▁haritalar	-11.4185
▁atık	-11.4186
▁moment	-11.4187
▁hp	-11.4189
▁işleyen	-11.419
▁topluluklar	-11.419
▁maçlarını	-11.4191
▁ortaokulu	-11.4192
▁kurumların	-11.4193
code	-11.4193
▁çizim	-11.4196
▁1971'	-11.4201
yecek	-11.4201
▁vücudu	-11.4201
▁söylenebilir	-11.4202
▁andronikos	-11.4202
▁öldürülmüştür	-11.4202
▁hastaların	-11.4203
▁merak	-11.4205
▁vekili	-11.4207
▁çıkartma	-11.4211
yorlardı	-11.4211
▁gözlü	-11.4211
▁idaresinde	-11.4213
merkez	-11.4218
▁balıkçılık	-11.4219
▁brit	-11.4221
▁üçte	-11.4222
▁tuzlu	-11.4223
▁prototip	-11.4223
▁askerlerinin	-11.4224
skenderiye	-11.4224
▁olamaz	-11.4224
▁ihracat	-11.4225
▁mira	-11.4225
▁avşar	-11.4225
fur	-11.4226
▁virüs	-11.4227
▁media	-11.4227
▁atanmıştır	-11.423
▁erişimi	-11.423
sanat	-11.4234
▁görüşlerini	-11.4235
sum	-11.4237
dari	-11.4239
▁asal	-11.4239
▁profil	-11.424
▁gövdesi	-11.4241
▁teleskop	-11.4243
▁oynayarak	-11.4243
▁afyonkarahisar	-11.4243
zzet	-11.4244
zyon	-11.4244
▁bilgilerin	-11.4245
▁yerleşmişlerdir	-11.4245
▁adasında	-11.4248
rî	-11.4248
ske	-11.4248
hü	-11.4249
▁100'	-11.425
▁şarkıyla	-11.4251
▁keşfetti	-11.4254
str	-11.4256
▁almışlardır	-11.4257
yeceği	-11.4257
▁alice	-11.4258
▁filip	-11.4259
▁nikola	-11.426
▁otoritesi	-11.4261
ışma	-11.4262
▁polonyalı	-11.4263
▁gökada	-11.4265
▁popülasyon	-11.4265
▁kaçak	-11.4266
▁satılan	-11.4266
ful	-11.4266
▁ryan	-11.4266
ith	-11.4267
iste	-11.4267
adlandırılmıştır	-11.4268
▁efe	-11.4268
proto	-11.4269
▁kurallarına	-11.4269
▁cemaati	-11.427
п	-11.4271
gri	-11.4272
▁tarzda	-11.4274
▁takı	-11.4274
▁organizma	-11.4276
▁nikolay	-11.4278
▁fabrikaları	-11.4278
▁geçtikten	-11.4278
▁lamba	-11.4279
▁isimlerinden	-11.4281
▁ziyaretçi	-11.4281
teri	-11.4283
▁jersey	-11.4284
▁etraf	-11.4285
▁olmaksızın	-11.4285
▁kablosuz	-11.4285
▁lehçe	-11.4285
▁imzalamıştır	-11.4287
▁gösterilme	-11.4287
▁bulunul	-11.4288
▁bez	-11.4289
▁kararıyla	-11.4292
toshi	-11.4292
▁havaya	-11.4293
▁söylemek	-11.4293
ons	-11.4296
▁lisansı	-11.4298
▁doktorasını	-11.4298
▁normalde	-11.4299
▁bulmuş	-11.43
mond	-11.43
▁kasabanın	-11.4301
▁buluntular	-11.4303
▁yıkıldı	-11.4303
▁hâline	-11.4304
tp	-11.4304
▁düzenlenir	-11.4304
ی	-11.4305
▁kennedy	-11.4305
▁eleştirel	-11.4305
▁yönlendir	-11.4306
▁yayınlanmaya	-11.4306
▁azeri	-11.4306
dıktan	-11.431
şimdi	-11.431
gus	-11.4312
▁atılmıştır	-11.4312
fiz	-11.4312
▁kok	-11.4313
▁1860	-11.4315
▁aileden	-11.4315
▁%50	-11.4317
▁sistemlerinde	-11.4318
▁ulaştığı	-11.4318
▁gözlerini	-11.4318
duk	-11.4318
▁yaşlarında	-11.4319
kisi	-11.432
▁temelinde	-11.432
▁haberleşme	-11.4322
▁atlı	-11.4324
▁kısıtlı	-11.4324
sosyal	-11.4326
▁yatır	-11.4326
▁bonservis	-11.4326
▁buyruk	-11.4326
▁yöresinde	-11.4328
▁uyarlama	-11.4329
ktisat	-11.433
▁cena	-11.433
▁engelleme	-11.433
racak	-11.4331
▁şarkıcısı	-11.4331
▁takas	-11.4332
▁ark	-11.4333
▁seçilme	-11.4335
▁sakinleri	-11.4336
▁taşlar	-11.4337
▁familyası	-11.4337
▁höyüğü	-11.434
lenecek	-11.434
▁kaş	-11.4342
▁liderlik	-11.4343
ecekti	-11.4343
▁genom	-11.4343
▁lakabı	-11.4345
▁başarıya	-11.4346
▁bala	-11.4347
å	-11.4347
▁abdülhamid	-11.4347
▁amsterdam	-11.4347
▁dönüp	-11.4347
▁zarfında	-11.4349
▁aydınlatma	-11.4349
▁derhal	-11.435
▁istemektedir	-11.4352
mediği	-11.4352
▁sag	-11.4352
▁minare	-11.4354
▁biber	-11.4355
câ	-11.4357
▁doldurul	-11.4357
▁niko	-11.4357
gle	-11.4358
▁futbolcuları	-11.4359
▁katılımcılar	-11.436
▁şarj	-11.4361
▁familya	-11.4361
▁ço	-11.4361
4)	-11.4362
▁dick	-11.4362
▁nitelik	-11.4363
▁algılama	-11.4365
▁dahili	-11.4366
▁defans	-11.4368
▁tavan	-11.437
water	-11.4371
genellikle	-11.4373
▁kategorisi	-11.4373
▁merkezde	-11.4373
opti	-11.4374
▁aracılığı	-11.4376
▁hayatın	-11.4376
stop	-11.4376
▁oluyordu	-11.4381
▁seçimler	-11.4385
▁63	-11.4386
▁ziyareti	-11.4389
▁simülasyon	-11.4389
▁azalır	-11.4389
▁sorular	-11.439
▁tibet	-11.4391
▁sokağı	-11.4396
▁yakalama	-11.4398
▁faaliyetlerine	-11.4398
lebilir	-11.4399
▁jeo	-11.4401
▁1914'	-11.4405
metri	-11.4407
tit	-11.441
▁tasarlandı	-11.441
▁ölünce	-11.4411
▁marcel	-11.4413
maması	-11.4414
▁yöresi	-11.4416
▁zeus	-11.4416
▁ayda	-11.4418
▁manda	-11.4418
▁işlevleri	-11.4418
▁doğuya	-11.4419
fc	-11.442
▁isminde	-11.4421
▁tüketimi	-11.4421
dov	-11.4422
▁binbaşı	-11.4422
▁blog	-11.4422
▁etkileme	-11.4423
▁fars	-11.4424
▁kullanımını	-11.4426
▁giovanni	-11.4431
▁çinko	-11.4432
▁dönüşmüştür	-11.4433
▁oğlunu	-11.4433
▁nazaran	-11.4434
▁basım	-11.4434
▁haydar	-11.4434
▁sanki	-11.4434
▁ilahi	-11.4434
▁eskişehirspor	-11.4435
▁nxt	-11.4435
▁luke	-11.4438
▁akı	-11.4438
▁değiştirmek	-11.4443
▁gazetecilik	-11.4445
$	-11.4445
▁şapka	-11.4445
▁genişliğinde	-11.4446
▁farkına	-11.4448
я	-11.4448
▁kullanabilir	-11.4448
▁almakta	-11.445
▁columbia	-11.4452
stone	-11.4453
cis	-11.4453
▁işçiler	-11.4453
▁hazırlanması	-11.4457
rab	-11.4458
▁molekül	-11.4458
▁harun	-11.4463
▁rö	-11.4463
mızda	-11.4465
▁unsurlar	-11.4465
chan	-11.4465
▁eşitliği	-11.4466
▁güneybatısında	-11.4467
▁enstrüman	-11.4467
seri	-11.4468
arc	-11.4468
▁aramaya	-11.4469
▁tahsil	-11.447
mr	-11.447
▁görülmesi	-11.4472
cell	-11.4472
▁ürdün	-11.4473
▁musevi	-11.4474
▁stu	-11.4475
▁giray	-11.4478
▁geyik	-11.4479
üt	-11.4479
ema	-11.448
▁tanıtımı	-11.4482
▁justin	-11.4487
▁almasını	-11.4489
▁indirme	-11.4489
▁karaya	-11.449
▁fall	-11.449
▁kentler	-11.4491
çel	-11.4491
▁özelliklerine	-11.4492
laştırdı	-11.4493
▁1965'	-11.4494
▁rövanş	-11.4494
sab	-11.4494
▁itunes	-11.4494
▁titreşim	-11.4494
▁iso	-11.4495
▁patrick	-11.4496
▁tarihin	-11.4497
▁temelleri	-11.4497
▁yas	-11.4497
▁yel	-11.4498
▁delil	-11.45
▁gelişmekte	-11.45
▁toplayan	-11.4503
"(	-11.4504
▁aralarındaki	-11.4505
▁dize	-11.4509
▁yahudileri	-11.451
▁yenen	-11.4511
▁sağlanan	-11.4511
▁iplik	-11.4512
▁kaçmaya	-11.4512
▁uruguay	-11.4515
▁polinom	-11.4516
dadır	-11.4518
stiklal	-11.4518
sün	-11.4519
▁kk	-11.4519
▁atlet	-11.452
▁yayıldı	-11.452
▁komp	-11.4521
▁boşanma	-11.4521
▁yetiştirme	-11.4523
▁paralı	-11.4523
▁char	-11.4525
▁fm	-11.4526
zawa	-11.4526
▁tırman	-11.4528
▁havası	-11.453
sche	-11.453
▁senaryosu	-11.4531
dus	-11.4533
▁girl	-11.4534
▁örgütlenme	-11.4535
▁diferansiyel	-11.4537
▁veteriner	-11.4537
▁dimitri	-11.4537
▁yazıp	-11.4538
▁yazması	-11.4538
▁ilişkilerin	-11.4539
▁problemler	-11.4539
▁kırıklığı	-11.4541
▁tekil	-11.4541
oş	-11.4541
yüzlü	-11.4541
▁denklemleri	-11.4542
▁uçuşu	-11.4542
▁bırakılması	-11.4543
▁atak	-11.4543
▁ilim	-11.4544
spir	-11.4544
▁evcil	-11.4544
▁sayıdaki	-11.4544
lerleyen	-11.4544
dok	-11.4545
▁müziklerini	-11.4545
▁okuldan	-11.4546
almanya	-11.4548
▁edilmeye	-11.4549
▁grubundan	-11.4549
▁yerleşimi	-11.455
ırken	-11.4553
▁direnişi	-11.4554
▁verebilir	-11.4557
▁destanı	-11.4558
▁take	-11.4561
б	-11.4561
1.0	-11.4564
▁luis	-11.4567
mül	-11.4567
oluk	-11.457
▁100.000	-11.4571
dum	-11.4571
▁bölünmesi	-11.4572
kari	-11.4572
▁derya	-11.4574
▁azaltmak	-11.4575
▁çarpımı	-11.4575
▁başlattığı	-11.4576
▁arkadaşlarının	-11.4576
▁sayının	-11.4576
▁ayrıntı	-11.4577
▁apa	-11.4578
▁futbolcular	-11.458
▁keşfedildi	-11.458
▁halkına	-11.458
▁marx	-11.4582
▁fay	-11.4583
▁jedi	-11.4583
▁çarpma	-11.4585
ligi	-11.4586
pri	-11.4588
▁üyelik	-11.4588
▁yüzeyinde	-11.4589
▁değişmesi	-11.459
mina	-11.4591
daresi	-11.4591
▁dergide	-11.4592
▁atanan	-11.4592
▁hikâyesini	-11.4594
▁ilerledi	-11.4596
2006	-11.4597
▁gine	-11.4597
smo	-11.46
rlandalı	-11.46
div	-11.4601
▁karışım	-11.4601
▁ihmal	-11.4601
▁siteleri	-11.4601
▁eserinin	-11.4602
▁160	-11.4602
▁fre	-11.4602
ishi	-11.4605
▁adaylığı	-11.4605
▁değişti	-11.4606
▁öztürk	-11.4606
▁oynamak	-11.4607
cil	-11.4607
▁canlandı	-11.4607
▁kaçmayı	-11.4607
xx	-11.4608
▁etmekteydi	-11.4608
▁sahaya	-11.4608
▁panel	-11.4609
▁ال	-11.461
▁düşmanları	-11.4611
eng	-11.4611
▁barındırır	-11.4612
sé	-11.4615
amaması	-11.462
▁kazanç	-11.4621
▁minimum	-11.4622
rina	-11.4623
▁çince	-11.4625
▁okuyan	-11.4625
▁kışla	-11.4626
▁cesur	-11.4626
▁lastik	-11.4626
▁dönemdeki	-11.4626
ulmuş	-11.4627
▁büyüğü	-11.4627
cht	-11.4628
▁sayıların	-11.463
▁yüzünde	-11.463
▁dağıldı	-11.463
▁forum	-11.4631
gate	-11.4631
▁selam	-11.4632
▁fazlası	-11.4632
▁üzerindedir	-11.4633
▁oluşması	-11.4634
pg	-11.4635
▁çözmek	-11.4637
may	-11.4637
▁odaları	-11.4637
▁porto	-11.4638
▁sarayın	-11.4639
▁hatalı	-11.464
rar	-11.4641
este	-11.4642
▁kolon	-11.4642
▁prömiyeri	-11.4643
▁milliyet	-11.4643
▁hakaret	-11.4644
▁iblis	-11.4644
▁uçan	-11.4645
bkz	-11.4645
itz	-11.4646
▁getirerek	-11.4646
▁nitelikte	-11.4649
köyün	-11.465
▁bakteriler	-11.4651
▁kuzeydoğusunda	-11.4652
▁ahit	-11.4652
▁ilkbahar	-11.4653
▁ruhsal	-11.4653
▁yaşamının	-11.4656
değer	-11.4657
uld	-11.4661
▁smackdown	-11.4665
▁acımasız	-11.4665
▁virginia	-11.4666
▁tanımlanabilir	-11.4667
wald	-11.4669
▁izlediği	-11.467
▁sala	-11.4671
▁cemiyet	-11.4672
▁bulunurlar	-11.4672
▁paylaşım	-11.4672
elektrik	-11.4674
gut	-11.4674
▁bildirildi	-11.4674
▁yenileme	-11.4674
▁başlamışlardır	-11.4675
▁pilotu	-11.4676
üst	-11.4677
▁amaçlar	-11.4677
▁tavşan	-11.4678
▁yansıma	-11.4679
madığı	-11.4683
▁geldiler	-11.4685
▁johann	-11.4686
▁soluk	-11.4686
▁oliver	-11.4688
▁bernard	-11.4688
▁baltık	-11.4688
▁bozgun	-11.469
▁temelli	-11.4691
ref	-11.4691
rup	-11.4695
▁bağlanması	-11.4695
▁marşı	-11.4696
▁dergilerde	-11.4696
▁call	-11.4696
ojen	-11.4697
▁kamusal	-11.4698
mamış	-11.47
▁lüks	-11.4701
▁musul	-11.4701
▁japonca	-11.4702
▁dünyasının	-11.4702
▁homo	-11.4703
▁malzemesi	-11.4705
list	-11.4706
▁bağlanmış	-11.4707
tül	-11.471
▁tuttuğu	-11.471
▁1976'	-11.471
▁bela	-11.4713
▁bea	-11.4713
▁libya	-11.4715
_6	-11.4716
▁1922'	-11.4716
▁sars	-11.4719
▁bahçeleri	-11.472
düzenlenmektedir	-11.472
▁prodüktör	-11.4721
▁sparta	-11.4724
uluslararası	-11.4725
ştır	-11.4726
nen	-11.4727
▁fikirler	-11.4727
beyli	-11.4728
▁hanedanlığı	-11.4729
▁kitabe	-11.4729
▁aleyhine	-11.473
▁batarya	-11.4731
füzyon	-11.4731
▁sistematik	-11.4731
▁yaratmak	-11.4732
▁türevi	-11.4732
▁kaynaklarında	-11.4733
ısı	-11.4735
▁karşılandı	-11.4735
▁şüpheli	-11.4735
▁bölgesini	-11.4736
ich	-11.4737
▁ortalamaları	-11.4738
ndadır	-11.4739
▁theo	-11.4739
▁mun	-11.4741
▁gazeteciler	-11.4742
▁1946'	-11.4743
▁akımının	-11.4743
▁gerçekleşmesi	-11.4743
▁veriyor	-11.4743
mavi	-11.4744
▁belirti	-11.4744
▁çekirdeğin	-11.4747
▁ilişkilidir	-11.4747
▁öncesine	-11.4747
viz	-11.4749
ery	-11.4749
zik	-11.4754
▁türlerin	-11.4754
▁kültüründe	-11.4755
▁başlanmış	-11.4755
▁bürün	-11.4756
▁thor	-11.4756
koç	-11.4757
▁artırmak	-11.4757
drive	-11.4757
▁sea	-11.4758
▁çatal	-11.4759
▁budist	-11.4759
2010	-11.4759
uch	-11.4761
▁kayıtlarında	-11.4761
rama	-11.4761
▁arayışı	-11.4762
fır	-11.4763
▁rusların	-11.4764
▁çekin	-11.4765
tori	-11.4767
▁kanadalı	-11.4767
▁müte	-11.477
some	-11.477
▁isimlerin	-11.477
▁abisi	-11.4772
▁lanet	-11.4775
zor	-11.4776
▁uğrayan	-11.4776
▁geçimini	-11.4776
▁silahları	-11.4777
▁bilgiyi	-11.4777
▁faktörü	-11.478
▁torba	-11.478
▁mevsimi	-11.4783
▁uğradığı	-11.4785
▁gerekiyordu	-11.4786
▁beyi	-11.4787
yarı	-11.4787
▁göreceli	-11.4788
▁arar	-11.4789
fak	-11.4791
sip	-11.4791
py	-11.4791
▁dinin	-11.4791
vol	-11.4791
▁isimdir	-11.4795
▁mimarı	-11.4795
▁bağışıklık	-11.4796
▁nexus	-11.4796
▁wolf	-11.4796
▁öldürülür	-11.4796
▁yelken	-11.4799
rf	-11.4801
▁steven	-11.4802
pat	-11.4803
▁yaratan	-11.4804
▁spa	-11.4809
amayacağını	-11.4812
▁fiyatı	-11.4814
▁hücresi	-11.4816
amayacağı	-11.4817
▁manevra	-11.4818
▁altından	-11.4818
▁hece	-11.4819
▁sunmuştur	-11.482
▁sarf	-11.482
▁yıllardır	-11.4821
▁yaşat	-11.4825
eğe	-11.4825
▁evinin	-11.4827
▁gölet	-11.4829
▁bulunmak	-11.4829
▁bag	-11.4833
▁isparta	-11.4833
▁gerisinde	-11.4835
▁komutası	-11.4836
▁makamı	-11.4837
▁marco	-11.4838
▁nehrinin	-11.4839
▁parayı	-11.4839
▁fonksiyonları	-11.4839
▁bilişim	-11.484
▁çifte	-11.4842
▁cermen	-11.4842
▁faaliyeti	-11.4844
2008	-11.4844
▁dolaylı	-11.4846
▁alim	-11.4849
usu	-11.4851
▁kavramları	-11.4851
tica	-11.4852
▁eşyaları	-11.4852
▁incelenmesi	-11.4853
▁kutlama	-11.4854
▁dağılması	-11.4854
▁geldikleri	-11.4854
▁taşınır	-11.4855
▁gerçekleştirmek	-11.4856
▁sınırlama	-11.4856
▁metrelik	-11.4857
▁rou	-11.4857
bian	-11.4857
▁toplantılar	-11.4859
▁yün	-11.4859
▁sıkıştır	-11.4861
▁piyanist	-11.4861
▁obje	-11.4863
▁hareketle	-11.4864
bilimci	-11.4866
▁sınırlarını	-11.4867
ulus	-11.4867
▁sabiti	-11.4867
▁bruce	-11.487
▁best	-11.4871
▁boyunda	-11.4872
▁terminal	-11.4872
cular	-11.4873
▁ideoloji	-11.4874
▁çapta	-11.4874
▁savcı	-11.4874
▁böcekler	-11.4876
elim	-11.4878
▁viktor	-11.4881
▁sei	-11.4882
▁sait	-11.4883
▁engebeli	-11.4883
▁mıknatıs	-11.4883
▁tanınma	-11.4884
▁yiğit	-11.4884
▁bulmaya	-11.4884
▁özelliklerinden	-11.4884
▁90'	-11.4885
▁öncelikli	-11.4885
dip	-11.4886
lî	-11.4887
gent	-11.4891
▁puanlar	-11.4892
▁kasa	-11.4892
▁önleme	-11.4892
▁ilçeye	-11.4892
ht	-11.4894
pc	-11.4895
▁teklifini	-11.4895
▁mağaza	-11.4896
▁hâlinde	-11.4896
▁operatör	-11.4898
▁cisimler	-11.49
▁hanı	-11.4901
▁uygundur	-11.4904
▁devlete	-11.4904
▁vermişti	-11.4905
▁imtiyaz	-11.4906
▁abdülaziz	-11.4906
▁cris	-11.4907
▁motorlar	-11.4907
▁hastaneye	-11.4907
▁defalarca	-11.4907
▁kid	-11.491
▁eşinin	-11.4911
▁yazmaktadır	-11.4911
orman	-11.4911
▁açılışı	-11.4911
▁kendiliğinden	-11.4912
syanı	-11.4912
▁roy	-11.4912
▁akrabaları	-11.4912
▁binada	-11.4912
▁birincilik	-11.4913
▁namazı	-11.4914
▁haş	-11.4917
▁karesi	-11.4917
enter	-11.4918
▁fiziği	-11.4918
nur	-11.4918
wh	-11.4923
▁yerleşkesi	-11.4924
vez	-11.4925
▁şehirden	-11.4926
▁this	-11.4926
▁yalçın	-11.4928
▁mensubu	-11.4928
▁salı	-11.4928
▁başlayınca	-11.4929
▁ipek	-11.493
▁anılmaya	-11.4931
▁playoff	-11.4932
▁efsanesi	-11.4934
iğin	-11.4937
▁bulgarlar	-11.4937
▁terimleri	-11.4937
▁topar	-11.4938
▁düzenlemeler	-11.4939
▁değerlendirilme	-11.494
▁belgeleri	-11.494
kine	-11.4942
▁öğrenen	-11.4943
▁mesleki	-11.4944
▁sarah	-11.4945
açık	-11.4945
ulu	-11.4945
vuru	-11.4946
cli	-11.4946
▁satıcı	-11.4948
▁niyeti	-11.4949
shima	-11.4949
▁fiili	-11.495
▁beklenmedik	-11.495
▁charlotte	-11.495
▁tomo	-11.4952
▁blue	-11.4953
▁çevrilmiştir	-11.4953
çik	-11.4953
▁anlaşıl	-11.4954
▁vokalist	-11.4955
▁%3	-11.4955
▁köşkü	-11.4955
▁denizci	-11.4956
▁gayret	-11.4956
kî	-11.4956
▁dilinin	-11.4958
▁kayalık	-11.496
bai	-11.4962
▁doldurma	-11.4963
▁çekilmek	-11.4964
▁usb	-11.4965
▁sebepten	-11.4965
ttiği	-11.4966
▁binaları	-11.4966
▁komün	-11.4969
▁sanatçıları	-11.4971
▁pozisyonunda	-11.4971
yap	-11.4971
reti	-11.4973
▁diren	-11.4974
▁etkilerini	-11.4974
sağ	-11.4975
▁sineması	-11.4975
▁bırakan	-11.4978
▁1923'	-11.4978
enos	-11.4979
▁güve	-11.498
▁ırkı	-11.4981
alis	-11.4981
▁kamyon	-11.4983
▁öneme	-11.4983
tura	-11.4984
▁tanımladı	-11.4985
gard	-11.4986
bunlar	-11.4987
▁ola	-11.4989
gui	-11.499
▁aviv	-11.4991
plat	-11.4993
▁kentsel	-11.4994
▁mezhebi	-11.4994
κ	-11.4994
▁tutuldu	-11.4994
▁akustik	-11.4994
▁potasyum	-11.4994
▁ernst	-11.4994
▁kimliğini	-11.4995
▁göndererek	-11.4996
▁kapatılması	-11.4996
▁sofya	-11.4997
çil	-11.4997
▁anlaşılması	-11.4997
▁marino	-11.4998
▁derecesini	-11.5002
▁topraklarda	-11.5004
▁kek	-11.5005
▁değiştirilmiş	-11.5005
▁örnektir	-11.5006
▁elektrikli	-11.5009
sunda	-11.501
▁gördükleri	-11.501
kus	-11.5012
sma	-11.5012
▁atılır	-11.5012
▁sema	-11.5015
▁frekansı	-11.5016
▁saldırısına	-11.5016
▁ludwig	-11.5017
▁çınar	-11.5017
▁ebû	-11.5019
▁sesini	-11.5021
won	-11.5022
bury	-11.5022
▁amaçlayan	-11.5023
▁tiyatroları	-11.5025
ars	-11.5025
▁56	-11.5025
trik	-11.5026
▁harici	-11.5026
▁toplamak	-11.5027
▁faktörler	-11.5028
▁usul	-11.5028
mekle	-11.5029
▁dance	-11.5031
▁üreticileri	-11.5031
▁çürü	-11.5031
▁kuzeybatısında	-11.5033
▁ph	-11.5034
▁saygın	-11.5036
▁erol	-11.5036
▁buralarda	-11.5039
▁garnizon	-11.5039
ت	-11.5039
▁vaftiz	-11.5039
▁adlandırma	-11.5042
▁yatılı	-11.5043
▁1864	-11.5045
▁gökhan	-11.5046
▁kürek	-11.5046
taka	-11.5047
▁uzaklaştır	-11.5047
▁omuz	-11.5048
▁→	-11.5049
▁güneydoğusunda	-11.5049
▁biti	-11.5049
▁tutu	-11.5049
rıp	-11.5051
▁wu	-11.5051
tino	-11.5051
▁eyaletin	-11.5053
▁ceo	-11.5054
▁açılma	-11.5054
▁kalacak	-11.5056
▁kaplar	-11.5056
benz	-11.5057
enberg	-11.5059
▁içlerinde	-11.5059
ical	-11.5059
▁simetrik	-11.506
ø	-11.506
sw	-11.506
▁yapımına	-11.5061
▁birleşmesi	-11.5061
▁bavyera	-11.5061
▁mozart	-11.5062
▁pasif	-11.5062
▁zamanlarında	-11.5064
▁rodos	-11.5065
▁1892	-11.5067
rır	-11.5068
larındandır	-11.5068
▁toplumda	-11.5068
şem	-11.5069
▁kongo	-11.5069
▁inanan	-11.5069
▁osmanlıların	-11.5071
▁hakkına	-11.5075
▁yapılmaya	-11.5075
aşağı	-11.5075
▁açıklayan	-11.5076
ough	-11.5076
▁hayli	-11.5079
▁kavak	-11.5079
kapa	-11.5079
▁ülkelerine	-11.5081
▁dosyası	-11.5081
▁tang	-11.5081
▁soyadını	-11.5082
▁göründü	-11.5083
▁gerektir	-11.5083
char	-11.5084
▁kireç	-11.5084
▁cumartesi	-11.5084
▁bedeni	-11.5084
▁sünnet	-11.5084
▁potter	-11.5086
▁sırrı	-11.5086
toria	-11.509
▁sırayla	-11.5093
▁anlatıcı	-11.5095
▁üretti	-11.5095
▁ivan	-11.5096
lius	-11.5097
▁sac	-11.5099
▁gidi	-11.5099
▁tarzını	-11.51
pes	-11.51
çift	-11.5101
▁kökü	-11.5101
▁tamamlanmış	-11.5102
▁nereden	-11.5105
▁society	-11.5106
ilk	-11.5107
▁sinagog	-11.5107
▁edildiğini	-11.5109
▁bölük	-11.5109
▁partizan	-11.5109
▁levent	-11.5109
▁güce	-11.5112
ebilme	-11.5113
▁etkilenme	-11.5113
▁delege	-11.5114
▁kuşku	-11.5114
▁alıntı	-11.5116
ether	-11.5116
▁heart	-11.5117
▁sıkıntılar	-11.5118
alizm	-11.5119
ankara	-11.5119
▁yasalar	-11.512
▁çeşitlilik	-11.5122
▁kana	-11.5122
▁köylülerin	-11.5122
çılık	-11.5124
▁yarışmasına	-11.5125
▁tru	-11.5127
▁topladığı	-11.5129
ه	-11.5129
▁mühür	-11.5129
▁özbekistan	-11.5129
▁mafya	-11.5129
▁açıklamalar	-11.513
▁petersburg	-11.513
▁yarımada	-11.513
▁artistik	-11.5131
▁kullanıcıları	-11.5131
▁melez	-11.5131
deutsche	-11.5131
▁sankt	-11.5131
▁gözler	-11.5132
▁alanların	-11.5135
▁tanrılar	-11.5135
▁sanık	-11.5136
▁gösteriyor	-11.5136
-30	-11.5136
qa	-11.5138
▁proteinler	-11.514
▁kıyıları	-11.514
́	-11.5142
▁saniyede	-11.5142
yüksek	-11.5144
▁1962'	-11.5145
ias	-11.5145
▁albümle	-11.5145
▁lil	-11.5146
▁dönemden	-11.5147
müzik	-11.5148
▁kavramlar	-11.5148
▁yaprakları	-11.5148
wing	-11.515
▁tebriz	-11.5152
uchi	-11.5153
ıldığında	-11.5154
▁milyonlarca	-11.5154
▁çevreleyen	-11.5155
omi	-11.5155
▁spin	-11.5155
▁makineleri	-11.5156
▁kast	-11.5156
lanmasını	-11.5159
▁aero	-11.5159
▁fener	-11.5159
▁aileleri	-11.516
▁süreliğine	-11.5161
▁açmış	-11.5161
▁üstünlüğü	-11.5165
▁ağacın	-11.5166
3.5	-11.5169
▁çoğunun	-11.517
mamıştır	-11.5171
▁basra	-11.5171
▁yakınındaki	-11.5172
▁mezhep	-11.5173
▁üniversiteler	-11.5174
▁bölünmüş	-11.5174
▁remix	-11.5174
▁bakma	-11.5175
▁yayınlandığı	-11.5175
▁haliyle	-11.5176
▁taksi	-11.5176
▁kuramsal	-11.5178
▁koni	-11.518
ries	-11.5181
▁oturdu	-11.5181
▁cannes	-11.5181
îyye	-11.5182
bour	-11.5182
▁kampüs	-11.5183
cross	-11.5185
▁yapılmasına	-11.5186
▁syn	-11.5187
▁pepsi	-11.5188
▁eşsiz	-11.5188
▁seviyesinden	-11.5189
▁sıcaklığın	-11.5189
▁ellerinde	-11.519
▁madeni	-11.519
▁ilkel	-11.5191
▁logo	-11.5191
▁gerçekleştiren	-11.5191
▁göller	-11.5192
ado	-11.5195
▁dilini	-11.5196
rac	-11.5196
▁öğüt	-11.5197
”"	-11.5198
ğun	-11.5198
▁düzenleyen	-11.5198
cam	-11.5198
▁tanımlayan	-11.52
▁1947'	-11.5205
saf	-11.5205
▁korunma	-11.5206
▁sağlanmıştır	-11.5206
▁çalışmaların	-11.5206
▁yıkılması	-11.5208
▁eklenir	-11.521
▁kente	-11.5214
▁girmeye	-11.5215
▁pekin	-11.5216
▁dişiler	-11.5217
▁dalda	-11.5219
▁doküman	-11.522
·	-11.522
▁nintendo	-11.522
▁cro	-11.522
▁edilemez	-11.522
ğın	-11.5222
▁incelemeler	-11.5223
bugünkü	-11.5223
▁topla	-11.5224
▁barındır	-11.5224
▁grubudur	-11.5224
▁kabar	-11.5225
rusya	-11.5227
▁sele	-11.5227
▁turnesi	-11.5227
▁birbiri	-11.5227
▁yaşamına	-11.5229
yım	-11.5229
▁tanınmıştır	-11.5229
▁ücreti	-11.5229
▁bağlanan	-11.5229
ра	-11.5231
aq	-11.5232
▁ilkeleri	-11.5233
▁sonuncu	-11.5234
▁özelliğine	-11.5235
▁kullanıyor	-11.5235
▁belirtildi	-11.5237
▁onarım	-11.5238
slav	-11.5241
▁flash	-11.5242
▁140	-11.5242
▁biter	-11.5243
▁58	-11.5244
▁leke	-11.5244
▁warner	-11.5245
▁belirtmektedir	-11.5247
▁etkileyici	-11.5247
▁tamamlanmıştır	-11.5247
▁çevrildi	-11.5248
▁performansıyla	-11.5248
polis	-11.5249
▁oluşturul	-11.5249
▁çöp	-11.525
▁kuvvetlerini	-11.525
▁jin	-11.5251
▁örgütleri	-11.5251
▁anma	-11.5251
▁türkü	-11.5252
▁stres	-11.5252
haus	-11.5252
▁çağrısı	-11.5257
▁(11	-11.5257
grup	-11.5258
force	-11.5259
hom	-11.5261
▁üçüncüsü	-11.5264
▁gurur	-11.5264
▁poz	-11.5265
ive	-11.5265
zem	-11.5265
▁global	-11.5266
▁marksizm	-11.5266
▁tuhaf	-11.5266
▁serie	-11.5266
▁ölümsüz	-11.5267
▁şöhret	-11.5268
cz	-11.5268
▁gönderilmiştir	-11.5269
▁önder	-11.5269
▁(1)	-11.527
▁1933'	-11.527
▁enlem	-11.5272
-25	-11.5272
▁1948'	-11.5272
▁yüzüne	-11.5273
▁%10	-11.5274
▁çıktığında	-11.5275
▁sürat	-11.5276
▁faşist	-11.5279
▁ekipman	-11.5279
▁yatağı	-11.528
101	-11.528
▁dalgası	-11.528
▁bitkilerin	-11.5282
masının	-11.5282
▁bedel	-11.5283
▁wei	-11.5283
ique	-11.5288
▁yararlanarak	-11.5289
▁camisi	-11.529
▁ablası	-11.529
▁ünite	-11.5291
▁vektörü	-11.5292
▁mülkiyet	-11.5292
irken	-11.5292
▁birliklerin	-11.5293
▁gala	-11.5294
▁birbirlerinden	-11.5294
▁1881	-11.5294
▁türev	-11.5294
▁şartı	-11.5295
▁mirza	-11.5296
▁hatıra	-11.5302
▁verilerek	-11.5303
▁yetiştirilmekte	-11.5307
▁danışma	-11.5307
media	-11.5307
▁azot	-11.5308
▁kararla	-11.5309
▁seçtiği	-11.5309
beg	-11.5309
▁tarikat	-11.5309
▁götürdü	-11.5311
▁atlantik	-11.5311
▁çalan	-11.5313
▁yaşlarda	-11.5314
▁boris	-11.5318
▁okunur	-11.5321
▁carter	-11.5322
▁koymuş	-11.5323
▁dinleyici	-11.5323
▁dalgaları	-11.5326
gay	-11.5326
laşarak	-11.5326
ışık	-11.5327
▁duvarın	-11.5329
rici	-11.5329
▁gide	-11.5329
▁kabuğu	-11.533
▁çizer	-11.5332
ikon	-11.5334
▁philadelphia	-11.5335
▁veliaht	-11.5335
▁öbür	-11.5336
▁salın	-11.5336
▁hizmetine	-11.5338
▁merkeze	-11.5338
▁evlerin	-11.5338
▁konumunu	-11.5339
▁1882	-11.534
▁ortadoğu	-11.5341
▁beldenin	-11.5341
▁dönemindeki	-11.5342
▁iri	-11.5343
▁sürecek	-11.5343
▁öldüğünü	-11.5344
▁geçerken	-11.5344
▁yayınlama	-11.5345
▁evden	-11.5347
▁cildi	-11.5348
▁zirvesi	-11.5348
▁delta	-11.535
▁yıllığına	-11.535
▁önerme	-11.5351
▁kayak	-11.5351
tuk	-11.5351
▁olabilirler	-11.5355
ölüm	-11.5356
▁lefkoşa	-11.5358
▁daimi	-11.5358
ár	-11.5359
▁polimer	-11.536
rad	-11.5361
kulu	-11.5362
▁amir	-11.5364
▁sasani	-11.5366
lab	-11.5366
fakat	-11.5366
▁köyünden	-11.5368
▁£	-11.5371
eur	-11.5371
▁sistemidir	-11.5373
▁aya	-11.5373
▁platon	-11.5376
▁tekirdağ	-11.5381
▁vincent	-11.5381
▁tayvan	-11.5381
▁yolculuğu	-11.5382
▁anlamları	-11.5385
на	-11.5388
▁ediliyor	-11.5388
▁imge	-11.5389
▁sanatının	-11.539
▁işin	-11.539
▁ülkelerden	-11.5392
map	-11.5395
▁uzmanlar	-11.5398
mbo	-11.54
▁1961'	-11.5405
▁dizileri	-11.5406
▁değiştirmiştir	-11.5408
lsa	-11.5408
▁armut	-11.5409
▁rumlar	-11.541
▁kategoride	-11.5411
ole	-11.5411
volt	-11.5415
▁atıf	-11.5416
▁törenle	-11.5421
▁dışarıya	-11.5421
strat	-11.5422
▁evlat	-11.5424
▁sloganı	-11.5426
dé	-11.5427
▁ibaret	-11.5427
▁gogh	-11.5429
▁urfa	-11.543
▁patlaması	-11.543
▁sl	-11.5431
▁geliştirmiştir	-11.5431
▁1893	-11.5432
▁tipleri	-11.5432
laştırılmış	-11.5432
▁1891	-11.5433
▁haberdar	-11.5433
yoruz	-11.5433
▁fuarı	-11.5434
ülkü	-11.5435
ense	-11.5435
por	-11.5437
john	-11.5441
çuk	-11.5443
▁las	-11.5443
▁kama	-11.5444
▁doğar	-11.5445
▁kaydedildi	-11.5445
▁ladin	-11.5445
▁danışmanlığı	-11.5447
▁sola	-11.545
▁oğul	-11.5451
▁enzim	-11.5452
▁fotoğrafları	-11.5452
work	-11.5452
▁gereğince	-11.5453
roll	-11.5454
▁oyların	-11.5456
▁akla	-11.5456
▁iddiası	-11.5456
▁taburu	-11.5456
ew	-11.5459
▁başarıyı	-11.5461
alist	-11.5462
stadt	-11.5462
▁çakır	-11.5463
leşmiştir	-11.5466
▁geçirdiler	-11.5466
atik	-11.547
▁birliklerini	-11.5471
lanmasına	-11.5473
▁halkları	-11.5474
−	-11.5474
▁lüksemburg	-11.5474
▁spektrum	-11.5474
▁valentin	-11.5474
▁biyografi	-11.5474
▁gordon	-11.5476
astro	-11.5477
▁zamanının	-11.5478
▁prodüksiyon	-11.548
▁yarıda	-11.5481
ayır	-11.5482
stasyonu	-11.5485
▁temsilciler	-11.5487
▁ermiştir	-11.5489
live	-11.5489
▁fred	-11.5492
▁ısınma	-11.5492
▁nedenlerden	-11.5495
▁çubuğu	-11.5497
▁fantastik	-11.5497
▁hadis	-11.5497
▁olmamakla	-11.5499
▁kaybederek	-11.5499
▁sinyali	-11.5499
▁açıklamak	-11.55
▁yakındır	-11.5502
▁yenilen	-11.5503
▁sk	-11.5504
▁türden	-11.5505
▁iyileştirme	-11.5505
▁komünizm	-11.5508
.000.000	-11.5509
▁alımı	-11.551
▁filtre	-11.551
ğına	-11.5513
▁yayımlanmış	-11.5514
▁hunt	-11.5516
▁studio	-11.5517
▁ettirme	-11.5519
ʿ	-11.5521
▁firavun	-11.5521
▁anlatılmaktadır	-11.5521
▁yüzünü	-11.5522
▁xander	-11.5522
landırılması	-11.5524
▁%4	-11.5525
▁geçirilen	-11.5527
▁1867	-11.5527
▁atölye	-11.5528
▁şiddetle	-11.5528
▁dindar	-11.553
▁kafe	-11.5533
dırlar	-11.5536
▁fotoğrafçı	-11.5536
▁sana	-11.5537
▁katılacak	-11.5538
▁arts	-11.5538
▁belirlen	-11.5538
▁rei	-11.554
▁evlenir	-11.5542
lığından	-11.5542
▁1936'	-11.5543
▁tanır	-11.5543
▁annesini	-11.5544
muallim	-11.5544
▁izotop	-11.5544
▁justinianus	-11.5544
bent	-11.5545
birlik	-11.5546
asker	-11.5546
▁istiyor	-11.5546
▁france	-11.5547
ashi	-11.5547
▁taşınabilir	-11.5548
▁beynin	-11.5548
▁fuji	-11.5548
▁araçların	-11.5549
▁elle	-11.5549
nit	-11.5551
▁imzalama	-11.5553
▁tuvalet	-11.5553
rico	-11.5554
▁franklin	-11.5554
▁görüşe	-11.5556
▁sonbahar	-11.5556
ebilirler	-11.5557
▁yerin	-11.5558
▁çekmiş	-11.5567
▁koridor	-11.5568
▁neolitik	-11.5569
▁paylaştığı	-11.557
▁tanımlanmış	-11.5571
▁ölçümü	-11.5571
▁2014-15	-11.5572
▁seviyesine	-11.5572
görevlendirme	-11.5573
▁komutanları	-11.5573
▁göndermek	-11.5573
▁lozan	-11.5575
▁çene	-11.5575
ânî	-11.5577
▁hükme	-11.5577
▁kararları	-11.5579
▁eklenen	-11.5579
▁ödüllü	-11.558
lerdendir	-11.5582
▁yurttaş	-11.5585
▁grupla	-11.5586
▁adi	-11.5586
▁1963'	-11.5588
▁paylaşıl	-11.559
▁dahildir	-11.559
▁bozulması	-11.5591
▁kelimesinden	-11.5591
▁muzaffer	-11.5592
▁portakal	-11.5592
▁şarkısında	-11.5593
▁kronik	-11.5594
şik	-11.5596
▁fonksiyonlar	-11.5597
▁kabine	-11.5599
▁harcama	-11.5603
▁sezona	-11.5604
▁müzakereler	-11.5608
▁belirtmek	-11.5608
▁alamadı	-11.5608
▁simgeler	-11.5609
▁yapısının	-11.561
▁değişimler	-11.5614
▁yönündeki	-11.5614
kins	-11.5615
▁rakamı	-11.5615
▁uyguladığı	-11.5615
▁tutumu	-11.5615
▁massachusetts	-11.5615
▁tahtına	-11.5616
▁dağınık	-11.5616
▁görüşünü	-11.5616
▁howard	-11.5616
▁arsenal	-11.5617
▁yürüdü	-11.5618
siyah	-11.5619
▁kukla	-11.562
▁yatan	-11.562
▁fatma	-11.5621
▁tüket	-11.5621
▁gözet	-11.5622
▁emiri	-11.5623
▁skorla	-11.5624
▁bulunduran	-11.5625
▁85	-11.5627
ping	-11.5628
trick	-11.5629
▁casus	-11.5631
▁şebeke	-11.5631
▁düzenler	-11.5632
celi	-11.5632
▁galya	-11.5632
çocuk	-11.5633
▁yıldızları	-11.5634
nâme	-11.5634
▁petro	-11.5636
▁sonuçlarına	-11.5637
ess	-11.5638
lince	-11.5639
▁tugayı	-11.5639
▁sürtünme	-11.5639
▁hemşire	-11.5639
▁yapıyordu	-11.5641
▁inceleyen	-11.5642
▁çevreler	-11.5642
▁sadakat	-11.5642
▁maske	-11.5643
▁mevsiminde	-11.5644
▁studios	-11.5644
▁avusturyalı	-11.5644
▁kanunları	-11.5647
▁kef	-11.5647
▁edinme	-11.5648
▁gelenler	-11.5648
▁varisi	-11.565
▁bitiril	-11.5654
çek	-11.5654
çinde	-11.5655
▁öğrenmek	-11.5655
▁istemiş	-11.5656
▁1938'	-11.5659
▁kızılderili	-11.5659
ianus	-11.5661
▁ortaklık	-11.5662
▁hacettepe	-11.5663
▁kuveyt	-11.5663
ktif	-11.5663
albüm	-11.5664
▁albümünden	-11.5665
▁hatırlat	-11.5665
▁dip	-11.5666
▁1894	-11.5668
▁mektuplar	-11.5669
termi	-11.5669
sf	-11.567
▁çakıl	-11.5671
▁1966'	-11.5674
resi	-11.5674
▁kuyruklu	-11.5674
▁kai	-11.5675
ois	-11.5675
telli	-11.5675
sburg	-11.5676
▁sorumludur	-11.5676
▁tarafa	-11.5678
▁ölç	-11.5678
▁ağları	-11.568
▁mala	-11.568
▁öldüğünde	-11.568
▁sarayda	-11.5687
▁laik	-11.5687
gök	-11.5688
▁anlatmaktadır	-11.5689
▁konseri	-11.569
▁ergin	-11.569
2011	-11.569
tılmış	-11.5691
▁fernando	-11.5692
▁çekmeye	-11.5692
▁gruplara	-11.5693
▁350	-11.5694
▁uyandır	-11.5694
▁sembolik	-11.5695
▁uzunluk	-11.5697
▁yarışmacı	-11.5701
–19	-11.5702
laştığı	-11.5702
▁rob	-11.5703
▁kane	-11.5705
▁sağlandı	-11.5706
▁bulması	-11.5706
▁72	-11.5706
▁halifesi	-11.5707
▁lira	-11.5707
▁makineli	-11.571
▁yakası	-11.571
▁şevket	-11.5711
▁sıralaması	-11.5712
▁boyutta	-11.5713
emekliye	-11.5713
▁kant	-11.5713
▁uygarlığı	-11.5714
▁hâli	-11.5716
▁aşağıya	-11.5717
▁yönleri	-11.5718
▁işgaline	-11.5719
▁uzayda	-11.572
yüzyıl	-11.572
▁komik	-11.5722
bie	-11.5722
▁sabun	-11.5722
kası	-11.5723
▁hattının	-11.5723
kiz	-11.5724
bik	-11.5726
▁keşfetme	-11.5726
dık	-11.5726
emediği	-11.5728
▁fair	-11.573
▁yürüt	-11.5731
▁bitirme	-11.5732
▁system	-11.5733
ш	-11.5735
▁kürdistan	-11.5735
▁maarif	-11.5735
▁büyükbaş	-11.5735
▁muhabir	-11.5737
▁oluşturulur	-11.5738
▁stra	-11.5741
▁verip	-11.5745
2012	-11.5749
▁çalmaya	-11.5752
▁magic	-11.5752
▁derisi	-11.5753
▁loca	-11.5753
▁çer	-11.5755
▁okumak	-11.5756
▁mürettebat	-11.5757
▁oyuncularından	-11.5757
▁ural	-11.5758
▁balta	-11.5759
▁ölümüyle	-11.5761
▁deneyi	-11.5762
▁aletler	-11.5762
▁salınım	-11.5762
▁bestelediği	-11.5762
▁solist	-11.5763
▁kaydedilen	-11.5764
▁müslümanların	-11.5766
▁miting	-11.5767
▁beat	-11.5767
nter	-11.5768
▁neu	-11.5769
▁clara	-11.577
ulur	-11.5771
▁arttırma	-11.5772
tier	-11.5772
▁town	-11.5773
▁lisa	-11.5774
▁tarihçisi	-11.5776
▁binaların	-11.5777
ault	-11.5778
▁gelecekteki	-11.5778
▁senatosu	-11.5778
▁vitamini	-11.5778
▁ilişkiye	-11.5779
▁şirin	-11.5781
cim	-11.5781
4.000	-11.5782
▁ekibin	-11.5782
▁ester	-11.5782
▁yurda	-11.5783
▁parazit	-11.5784
▁kalbi	-11.5784
▁düğüm	-11.5784
▁mahalleleri	-11.5784
▁aksaray	-11.5785
ürü	-11.5786
▁türemiştir	-11.5786
▁eğitmen	-11.5786
▁davranışlar	-11.5786
▁tutuş	-11.5788
▁petr	-11.5791
▁ilçesidir	-11.5791
▁aristo	-11.5792
etta	-11.5792
▁kötülük	-11.5792
▁büyükelçisi	-11.5792
▁padişahı	-11.5793
▁sistemlerin	-11.5794
▁flo	-11.5794
hey	-11.5794
▁padişahın	-11.5794
▁bulunmaz	-11.5795
güneş	-11.5795
▁formatında	-11.5796
vik	-11.5802
▁şişli	-11.5804
▁62	-11.5806
▁çıkıntı	-11.5807
▁lgbt	-11.5807
▁dedektif	-11.5807
▁öğle	-11.5807
▁yanardağ	-11.5808
▁işçilerin	-11.5808
▁sabri	-11.5808
▁tahran	-11.5808
▁reddedil	-11.5809
▁balıklar	-11.581
mıyordu	-11.5811
▁çalışmalarıyla	-11.5813
reb	-11.5813
▁uygu	-11.5814
kuru	-11.5814
▁şehrini	-11.5814
▁planlar	-11.5819
düz	-11.5819
▁şeye	-11.5819
▁api	-11.582
▁dönemini	-11.5822
landığını	-11.5822
▁önderliğindeki	-11.5823
▁yarısını	-11.5824
lop	-11.5826
beh	-11.5827
▁sorumlusu	-11.5827
nova	-11.5827
▁imar	-11.5828
▁franco	-11.5828
▁alandaki	-11.583
▁çıkmayı	-11.583
two	-11.583
▁fotoğrafı	-11.5831
▁singapur	-11.5831
▁çarşamba	-11.5831
▁şanlıurfa	-11.5831
▁tehdidi	-11.5831
▁domates	-11.5831
▁rakımı	-11.5831
▁bam	-11.5831
▁herkese	-11.5832
▁hide	-11.5833
▁ağırlığında	-11.5833
▁kota	-11.5833
▁mera	-11.5836
▁etkilemiştir	-11.5836
[...]
